node {
  name: "global_step/Initializer/zeros"
  op: "Const"
  attr {
    key: "_class"
    value {
      list {
        s: "loc:@global_step"
      }
    }
  }
  attr {
    key: "_output_shapes"
    value {
      list {
        shape {
        }
      }
    }
  }
  attr {
    key: "dtype"
    value {
      type: DT_INT64
    }
  }
  attr {
    key: "value"
    value {
      tensor {
        dtype: DT_INT64
        tensor_shape {
        }
        int64_val: 0
      }
    }
  }
}
node {
  name: "global_step"
  op: "VariableV2"
  attr {
    key: "_class"
    value {
      list {
        s: "loc:@global_step"
      }
    }
  }
  attr {
    key: "_output_shapes"
    value {
      list {
        shape {
        }
      }
    }
  }
  attr {
    key: "container"
    value {
      s: ""
    }
  }
  attr {
    key: "dtype"
    value {
      type: DT_INT64
    }
  }
  attr {
    key: "shape"
    value {
      shape {
      }
    }
  }
  attr {
    key: "shared_name"
    value {
      s: ""
    }
  }
}
node {
  name: "global_step/Assign"
  op: "Assign"
  input: "global_step"
  input: "global_step/Initializer/zeros"
  attr {
    key: "T"
    value {
      type: DT_INT64
    }
  }
  attr {
    key: "_class"
    value {
      list {
        s: "loc:@global_step"
      }
    }
  }
  attr {
    key: "_output_shapes"
    value {
      list {
        shape {
        }
      }
    }
  }
  attr {
    key: "use_locking"
    value {
      b: true
    }
  }
  attr {
    key: "validate_shape"
    value {
      b: true
    }
  }
}
node {
  name: "global_step/read"
  op: "Identity"
  input: "global_step"
  attr {
    key: "T"
    value {
      type: DT_INT64
    }
  }
  attr {
    key: "_class"
    value {
      list {
        s: "loc:@global_step"
      }
    }
  }
  attr {
    key: "_output_shapes"
    value {
      list {
        shape {
        }
      }
    }
  }
}
node {
  name: "Const"
  op: "Const"
  attr {
    key: "_output_shapes"
    value {
      list {
        shape {
          dim {
            size: 7645
          }
        }
      }
    }
  }
  attr {
    key: "dtype"
    value {
      type: DT_FLOAT
    }
  }
  attr {
    key: "value"
    value {
      tensor {
        dtype: DT_FLOAT
        tensor_shape {
          dim {
            size: 7645
          }
        }
        tensor_content: "X\372\223\302\216\361\223\302\330\363\223\302\354\372\223\302\275\370\223\302r\366\223\3029\354\223\302!\367\223\302\004\370\223\302\273\377\223\302U\374\223\302\007\367\223\302\227\363\223\302\351\366\223\302\333\000\224\302\240\372\223\302e\372\223\302y\364\223\302\300\364\223\302\277\370\223\302\267\363\223\302\334\363\223\302\316\350\223\302\307\366\223\302\277\365\223\3027\351\223\302k\351\223\302\343\364\223\302\345\343\223\302=\000\224\302\245\361\223\302\017\374\223\302\213\367\223\302\375\372\223\302\230\347\223\302?\373\223\302\210\361\223\302\007\355\223\302/\367\223\302\333\374\223\302l\350\223\302\313\363\223\302\306\375\223\302\215\364\223\302\224\355\223\302\231\377\223\302\316\004\224\302\303\370\223\302\366\362\223\302N\367\223\302Y\360\223\302<\225\223\302g\332\223\302{\347\223\302S\360\223\302\305\350\223\302`\372\223\302\240\374\223\3026\365\223\302\364\000\224\302\035\354\223\302\354\364\223\302\330\366\223\302U\003\224\302\206\360\223\302T\356\223\302\304\361\223\302\233\372\223\302\235\007\224\302\014\354\223\302R\362\223\302\374\346\223\302n\356\223\302\226\362\223\302\321\350\223\302\303\346\223\302\025\350\223\302\244\375\223\302W\004\224\3023\365\223\302\307\364\223\302\273\374\223\302\356\356\223\302\245\371\223\302l\356\223\302\305\352\223\302\333\366\223\302\357\357\223\302,\367\223\3028\347\223\302\251\356\223\302\262\362\223\302\035\362\223\302\276\376\223\302\335\364\223\3020\373\223\3021\363\223\302\"\002\224\302\210\373\223\302\313\353\223\302\344\366\223\302\007\376\223\302\266\376\223\302\270\373\223\302\021\375\223\302\252\371\223\302\276\372\223\302\230\367\223\302\221\364\223\302\207\376\223\302-\354\223\302\377\364\223\302\021\354\223\302F\354\223\302\275\371\223\302\035\374\223\302\014\371\223\302\270\360\223\302\026\365\223\302e\351\223\302\032\366\223\302)\366\223\302\312\370\223\302i\365\223\302\251\372\223\302l\374\223\302\350\370\223\302\305\004\224\302\021\360\223\302\332\364\223\302\231\337\223\302\036\365\223\3027\364\223\302\003\000\224\302\271\376\223\302<\354\223\302\226\000\224\302\215\372\223\302u\344\223\302\276\360\223\302\304\303\223\302\332\364\223\302\361\377\223\302\373\362\223\3027\364\223\302I\366\223\302\021\001\224\302T\362\223\302t\357\223\302`\341\223\302\003\003\224\302\022\001\224\302R\376\223\302R\363\223\302\263\372\223\302\302\367\223\302\005\367\223\302c\372\223\302\237\373\223\302\230\366\223\302\017\353\223\302z\370\223\302R\373\223\302\310\367\223\302s\374\223\302\034\354\223\302\022\365\223\302\233\373\223\302Y\376\223\302\343\373\223\302I\364\223\302\020\364\223\302\235\372\223\302\374\371\223\302\320\362\223\302\374\360\223\302W\370\223\302\004\354\223\302j\373\223\302u\364\223\302\037\370\223\302\373\371\223\302\253\354\223\302\267\361\223\302!\353\223\302\305\373\223\302\247\372\223\302\303\355\223\302o\300\223\302\247\001\224\302\001\375\223\302\r\352\223\302\006\361\223\302H\000\224\302{\371\223\302k\356\223\3026\362\223\302\002\372\223\302\236\360\223\302\263\370\223\302\234\360\223\302E\362\223\302\323\367\223\302\031\366\223\302\306\374\223\302g\000\224\302\343\372\223\302\252\376\223\302\366\361\223\302\237\374\223\302\307\364\223\302\264\373\223\302\321\003\224\302\275\363\223\302\177\371\223\302b\001\224\302-\370\223\302)\373\223\302\016\354\223\302\003\375\223\302L\360\223\302\223\377\223\302\370\367\223\302\312\372\223\302\030\371\223\302\366\366\223\302s\353\223\302S\373\223\302M\352\223\302\304\005\224\302\017\360\223\302d\375\223\302\231\370\223\302J\371\223\302\310\366\223\302J\371\223\302\367\352\223\302\r\001\224\302#\376\223\302\241\366\223\302\226\376\223\3022\003\224\302;\001\224\302\247\374\223\302V\371\223\302\204\000\224\302m\370\223\302\202\367\223\302\031\372\223\302w\003\224\302\260\366\223\302N\366\223\302\001\000\224\302\002\375\223\302\023\375\223\302\317\365\223\302\320\370\223\302\353\371\223\302n\366\223\302\322\372\223\302\350\364\223\302#\376\223\302\222\357\223\302\316\357\223\302\241\362\223\302\365\350\223\302\264\362\223\302e\371\223\3023\001\224\3022\005\224\302H\377\223\302\232\365\223\302\317\372\223\302\322\363\223\302f\365\223\302B\356\223\302l\363\223\302\255\375\223\302W\000\224\302(\001\224\302\302\367\223\302\232\377\223\302\342\367\223\302\225\363\223\302^\355\223\302\257\002\224\302\331\366\223\302q\365\223\302\356\370\223\302\025\002\224\302q\374\223\302\353\370\223\302\335\357\223\302#\001\224\302\275\000\224\302\331\344\223\302-\363\223\302\353\361\223\302+\004\224\302\031\354\223\302\215\000\224\302g\002\224\302c\356\223\302@\357\223\302\370\347\223\302\350\364\223\302\216\363\223\3022\367\223\3024\354\223\302\250\370\223\302W\370\223\302p\005\224\302\225\354\223\302\334\363\223\302\235\356\223\302\003\001\224\302\352\360\223\302f\002\224\302\300\374\223\302B\367\223\302\354\373\223\302\332\004\224\302\337\367\223\302\310\371\223\302\237\370\223\302\275\350\223\302\n\361\223\302\275\351\223\302i\353\223\302\205\360\223\3027\355\223\302\253\002\224\302\252\372\223\302\343\373\223\302\264\357\223\302\376\357\223\302\004\361\223\302F\356\223\302\331\366\223\302\222\347\223\302\336\367\223\302\301\001\224\302-\374\223\302\215\351\223\302>\356\223\302\266\360\223\302\032\376\223\302D\364\223\302~\375\223\302\255\364\223\302\306\363\223\302\036\356\223\302\276\355\223\302v\372\223\302Q\372\223\302Q\372\223\302\264\363\223\302\222\001\224\302\275\352\223\302\316\371\223\302\306\370\223\302\275\347\223\302\320\373\223\302|\373\223\302\363\367\223\302\257\365\223\302\312\003\224\302{\363\223\302%\363\223\302o\346\223\302&\000\224\302\336\374\223\302D\354\223\302d\366\223\302\"\007\224\302\360\370\223\302\237\377\223\302\317\277\223\302:\363\223\302\247\351\223\302\327\000\224\302\266\361\223\302\257\366\223\302\263\354\223\302\241\371\223\302\235\367\223\302\216\362\223\302\"\373\223\302>\371\223\302\255\365\223\302\334\366\223\302\203\356\223\302\304\364\223\302\371\364\223\302\271\371\223\302\036\366\223\302K\001\224\302V\353\223\302\021\374\223\302O\366\223\302\302\371\223\302\203\377\223\3025\377\223\302\377\364\223\302\250\002\224\302\250\375\223\302\331\002\224\302\250\371\223\302\017\346\223\302\017\010\224\302&\371\223\302\246\366\223\302\037\366\223\302\231\003\224\302@\010\224\302\363\374\223\302\246\375\223\3023\366\223\302\346\000\224\302W\371\223\302\n\003\224\302\027\364\223\302\232\347\223\302*\004\224\302\320\366\223\302\001\351\223\302a\375\223\302\016\372\223\302\n\363\223\302\352\357\223\302\t\370\223\302V\003\224\302\341\372\223\302\020\364\223\302%\004\224\302=\376\223\302\276\374\223\302!\371\223\302b\365\223\302B\374\223\302R\376\223\302\211\370\223\302\213\001\224\302T\354\223\302T\375\223\302K\355\223\302\022\365\223\302\367\356\223\302\020\374\223\302\365\002\224\302\004\277\223\302/\375\223\302\232\376\223\302\332\362\223\302$\003\224\302>\362\223\302S\347\223\302\215\370\223\302h\010\224\302\200\375\223\302\335\365\223\302\244\356\223\302.\352\223\302\016\345\223\302;\373\223\302\037\365\223\302\264\001\224\302 \352\223\302U\000\224\302B\351\223\302\254\362\223\302~\344\223\302\222\355\223\302\323\001\224\3028\371\223\302\247\363\223\302\005\005\224\302\354\372\223\302:\375\223\302Z\001\224\302_\366\223\302\025\346\223\302\016\003\224\302h\364\223\302\352\372\223\302\303\374\223\302\260\374\223\302\304\374\223\302\301\374\223\302f\004\224\302\254\361\223\302\336\373\223\302\237\376\223\302\225\375\223\302\264\350\223\302A\357\223\3026\357\223\302\211\375\223\302\353\362\223\302\336\362\223\302V\371\223\302a\363\223\302r\357\223\302\377\346\223\302\301\002\224\302V\357\223\302o\371\223\302\264\003\224\302\251\357\223\302\233\374\223\3020\001\224\302D\374\223\302i\352\223\302\213\346\223\302i\366\223\302\372\360\223\302\353\374\223\302\263\374\223\302a\010\224\302\200\004\224\3028\372\223\302\306\003\224\302\005\365\223\302\254\215\223\302\314\373\223\302Z\353\223\302\215\001\224\302&\010\224\302\346\366\223\302{\273\223\302\332\275\223\302\273\215\223\302R\363\223\302\351\225\223\302d\365\223\302\277\277\223\302z\370\223\3027\221\223\302XF\222\302f\220\223\302[\350\223\302$\332\223\302<\000\224\302\270\354\223\302\027\375\223\302\204\366\223\302\203\006\224\3029\006\224\302\002\356\223\302\371\366\223\302\225\350\223\302\030\373\223\302H\356\223\302\310\345\223\302s\371\223\302\346\360\223\302\332\005\224\302\233\375\223\3026\351\223\302Q\363\223\302\233\371\223\302\033\004\224\302\020\002\224\302E\347\223\302\357\361\223\302\303\364\223\302W\007\224\302\017\007\224\302\244\356\223\302\377\001\224\302\203\377\223\302\n\371\223\302\357\361\223\302\272\373\223\302\332\276\223\302w\005\224\302\n\373\223\302\347\275\223\302\342\276\223\302\031\363\223\302W\371\223\302W\366\223\302\247\271\223\302\311\353\223\3022\366\223\302\221\222\223\302\207\243\223\302\006\277\223\302\342\275\223\302\233\374\223\302\270\375\223\302\274\370\223\302o\365\223\302R\305\223\302\202\361\223\302\375\367\223\302c\371\223\302\264\223\223\302\254\340\223\3021\222\223\302\234\362\223\302\346\364\223\302\204\224\223\302`\367\223\302\350\271\223\302\324\365\223\302\332\002\224\302\326\371\223\302\030\364\223\302*\344\223\302\336\271\223\302\261\271\223\302\204\220\223\302\356\343\223\302s\224\223\302^\224\223\302\367\216\223\302\257\234\223\302\371\353\223\302\203\376\223\302\364\000\224\302\323\357\223\3024\360\223\302\362\376\223\302C\355\223\302C\363\223\302\260\377\223\302\352\364\223\302*\373\223\302\306\374\223\302\363\343\223\302F\372\223\302\262\003\224\302\177\365\223\302\367\367\223\302\005\367\223\302\350\373\223\302\320\367\223\302D\355\223\302\367\367\223\302\262\367\223\302\267\376\223\302w\357\223\302\275\333\223\302P\365\223\302\234\365\223\302\252\367\223\302\216\377\223\302\246\371\223\302,\352\223\302\036\372\223\302\026\316\223\302\270\365\223\302\215\000\224\302T\001\224\3025\347\223\302\r\370\223\302\\\350\223\302C\350\223\302\225\372\223\302\225\367\223\302\023\003\224\302\372\374\223\302\215\376\223\302\032\370\223\302\264\003\224\302\001\375\223\302\207\367\223\302\225\377\223\302\345\341\223\302/\364\223\302\302\377\223\302{\374\223\302p\004\224\302c\365\223\302\344\003\224\302\014\367\223\302\214\366\223\302\250\367\223\302\342\361\223\302\260\373\223\302v\356\223\302\253\372\223\302H\377\223\302\"\360\223\302\376\374\223\3023\362\223\302T\352\223\302\332\370\223\302\205\355\223\302\021\363\223\302\277\354\223\302\301\374\223\302\307\364\223\302`\370\223\302\272\371\223\302m\376\223\302\033\364\223\302d\364\223\302\247\352\223\302\313\356\223\302\346\366\223\302\245\353\223\302X\344\223\302:\372\223\302\311\367\223\302\000\366\223\302\255\364\223\302\032\341\223\302\241\362\223\302\332\003\224\302\031\357\223\302\261\007\224\302\231\340\223\302\307\353\223\302[\370\223\302q\373\223\302+\364\223\302z\346\223\302\257\361\223\302\214\366\223\3027\371\223\302e\360\223\302\275\366\223\302\311\351\223\302\n\372\223\302\000\353\223\302C\366\223\302m\370\223\302R\371\223\302\276\364\223\302R\366\223\302\032\000\224\302i\371\223\302\235\345\223\302S\365\223\302\271\377\223\3022\350\223\302\316\350\223\302\303\376\223\302\247\345\223\302\036\367\223\302\352\364\223\302\025\365\223\302\230\004\224\302\332\373\223\302>\374\223\302\260\376\223\302Q\347\223\302\245\363\223\302\017\365\223\302\322\373\223\302:\365\223\302\210\003\224\302U\372\223\302\213\343\223\302\010\000\224\302\240\360\223\302\256\350\223\302\324\362\223\302\342\370\223\302\310\361\223\302\263\271\223\302=\221\223\302\027\327\223\302\227\351\223\302\362\366\223\302\326\375\223\302\373\377\223\302H\003\224\302\033\356\223\302\360\275\223\302\300\331\223\302Q\374\223\302]\361\223\302\364\370\223\302,\361\223\302\234\373\223\3027\366\223\302\031\376\223\302\376\374\223\302~\376\223\302>\361\223\302\331\003\224\302f\371\223\302\255\351\223\302\312\271\223\302\002\004\224\302\234\365\223\3026\374\223\302\316\372\223\302\220\372\223\302\333\350\223\302\370\000\224\302\177\377\223\302*\364\223\302\274\370\223\302\315\361\223\302/\374\223\302\325\366\223\302\243\367\223\302\337\352\223\302\214\364\223\302G\367\223\302\342\374\223\3021\204\224\302F\361\223\302\205\363\223\302;\360\223\302;\364\223\302\254\372\223\302\243\000\224\302>\004\224\302H\357\223\302\364\376\223\302\222\367\223\302+\370\223\302\233\352\223\302\037\356\223\302\315\374\223\3020\372\223\302p\375\223\302\225\376\223\302\251\004\224\302\267\374\223\302\212\347\223\302@\364\223\302\317\353\223\302g\374\223\302T\370\223\302h\224\223\3029\371\223\302\326\366\223\302S\007\224\302\257\374\223\302\201\365\223\3029\352\223\302\362\371\223\302\227\373\223\302\316\374\223\302\360\374\223\302\262\367\223\302\360\371\223\302C\357\223\302\037\356\223\302\377\003\224\302\340\371\223\302\212\371\223\302\365\354\223\302^\347\223\302\021\360\223\302\360\374\223\302\353\354\223\302g\373\223\302\231\371\223\302\024\374\223\302.\373\223\302h\351\223\302\375\007\224\302:\003\224\302\247\362\223\302\005\353\223\302\344\377\223\302g\364\223\302\351\370\223\302\240\371\223\302\020\277\223\302t\345\223\302\370\221\223\302\245\345\223\302T\377\223\302|\346\223\302\014\370\223\302\363\351\223\302\031\367\223\302\022\377\223\302~\352\223\302\240\215\223\302\276\215\223\302p\220\223\302\272\215\223\302\361\275\223\302\261\361\223\302\214\373\223\302XF\222\302A\373\223\302\t\377\223\302\002\001\224\302\365\366\223\302\223\367\223\302\266\356\223\302\257\365\223\302x\351\223\302\310\001\224\302\030\000\224\302I\372\223\302\031\002\224\302\177\000\224\302\370\371\223\302 \354\223\302\035\374\223\302\275\372\223\302S\374\223\302\035\361\223\302\206\361\223\3023\003\224\302\301\371\223\302\360\363\223\302z\372\223\302\332\374\223\302\341\366\223\302\210\362\223\302\325\374\223\302\007\360\223\302\210\356\223\302J\364\223\302\244\347\223\302\230\377\223\302\021\372\223\302e\353\223\302\274\362\223\302\344\370\223\302\017\353\223\302\302\364\223\302J\370\223\302\343\346\223\302\357\367\223\302S\351\223\302J\353\223\302\337\364\223\302%\373\223\302\001\367\223\302\366\372\223\302O\363\223\302\251\003\224\302/\355\223\302P\372\223\302\031\352\223\302\333\377\223\302\'\004\224\302\003\363\223\302\376\374\223\302\277\001\224\302\365\001\224\302%\362\223\302\247\363\223\302|\355\223\302\220\370\223\302\265\377\223\302<\003\224\302A\366\223\302\211\371\223\302\274\374\223\302E\367\223\302-\363\223\302(\355\223\302H\366\223\302\375\364\223\302w\003\224\302\262\354\223\302b\371\223\302\260\360\223\302\254\362\223\302\307\363\223\302\021\005\224\302<\364\223\302\014\374\223\302U\260\223\302\006\376\223\302J\373\223\302F\362\223\3026\363\223\302\267\356\223\302\204\353\223\302\254\375\223\302\362\353\223\3023\350\223\302\324\367\223\302L\004\224\302f\377\223\302\311\350\223\302\225\001\224\302S\375\223\302\254\003\224\302\312\355\223\302}\002\224\302\213\375\223\302\377\372\223\302H\001\224\302\306\360\223\302E\367\223\302\331\364\223\302\354\362\223\302@\371\223\302\346\003\224\302\035\000\224\3029\351\223\302C\361\223\302\303\343\223\302~\000\224\302\005\006\224\302\322\365\223\302\333\367\223\302=\005\224\302G\004\224\302n\003\224\302\312\371\223\302\262\374\223\302\n\360\223\302\205\371\223\302w\375\223\302E\367\223\302 \363\223\302\035\355\223\302#\357\223\302\370\364\223\302.\364\223\302\321\347\223\302\362\351\223\302\331\223\223\302\252\215\223\302\217\356\223\302`\357\223\302\366\276\223\302\202\367\223\302G\003\224\302r\375\223\302U\004\224\302\r\377\223\302?\372\223\302a\373\223\302n\335\223\302\274\271\223\302\220\363\223\302\030\363\223\302\322\353\223\302\016\363\223\302\343\367\223\302>\363\223\302s\371\223\302\314\362\223\302 \002\224\302d\004\224\302>\366\223\302\210\356\223\302\227\354\223\302K\003\224\302\243\376\223\302|\375\223\302\007\367\223\302W\370\223\302:\375\223\302y\365\223\302d\370\223\3023\360\223\302\203\370\223\302C\374\223\302\022\354\223\302\334\001\224\302\330\366\223\302\303\003\224\302+\353\223\302\240\355\223\302\214\364\223\302\t\356\223\302]\370\223\302\206\370\223\302\244\357\223\302\354\355\223\302.\364\223\302\237\374\223\302m\371\223\302\352\356\223\302t\367\223\302\357\371\223\302\247\364\223\302\354\362\223\302\356\374\223\302}\361\223\302\n\370\223\302\227\370\223\302\244\366\223\302l\364\223\302\331\371\223\302\351\366\223\302\233\373\223\302\304\371\223\302%\366\223\302\260\004\224\302\327\377\223\302\301\367\223\302u\357\223\302{\357\223\302\232\360\223\302\315\001\224\302\213\367\223\302\177\354\223\302\310\357\223\302m\367\223\302\342\362\223\302\272\371\223\302\027\355\223\302K\362\223\302\365\375\223\302\273\366\223\302\267\377\223\302\027\367\223\302j\363\223\302\365\373\223\302d\363\223\302{\375\223\302O\365\223\302\025\354\223\302x\373\223\3021\350\223\3029\002\224\302\"\365\223\302\203\371\223\302\r\354\223\302\240\277\223\302s\363\223\302.\375\223\302\255\003\224\302\272\001\224\302\370\275\223\302\312\365\223\302\330\371\223\302y\000\224\302\306\367\223\302@\373\223\302\003\330\223\302\242\364\223\302G\373\223\302\001\364\223\302=\000\224\302\375\353\223\302\377\004\224\302\344\347\223\302c\360\223\302[\002\224\302\357\332\223\302\221\377\223\302&\366\223\302\000\367\223\302\203\004\224\302\202\347\223\302J\355\223\302\346\372\223\302\214\374\223\302D\007\224\302\352\370\223\302\370\276\223\302\347\276\223\302\271\360\223\302a\361\223\302\200\355\223\302b\346\223\302\366\363\223\302\361\366\223\302\367\364\223\302{\377\223\302y\374\223\302\001\376\223\302\266\372\223\302\020\363\223\302\350\004\224\302^\370\223\302\354\373\223\302w\343\223\302t\371\223\302m\373\223\302\214\375\223\3024\362\223\302\244\302\223\302\367\374\223\302\274\000\224\302\374\375\223\302\252\361\223\302\301\377\223\302/\371\223\302n\370\223\3026\001\224\302<\373\223\302\023\362\223\302\247\373\223\302\361\001\224\302\273\365\223\302i\343\223\302\206\356\223\302C\365\223\302\263\366\223\302W\362\223\302\337\006\224\302\237\373\223\302%\373\223\302\366\366\223\302*\373\223\302\246\352\223\302\014\373\223\302S\374\223\302\276\357\223\302\336\373\223\302\221\364\223\302M\356\223\302\340\007\224\302w\365\223\302!\376\223\302y\001\224\302V\354\223\302\271\373\223\302\274\363\223\302\304\375\223\302\274\000\224\302[\365\223\302\301\370\223\302\222\362\223\302\244\345\223\302 \374\223\302\351\362\223\302\350\360\223\302\341\364\223\302\337\355\223\302\344\366\223\302\263\362\223\302\300\372\223\302*\377\223\302\275\375\223\302b\353\223\302\272\354\223\302T\352\223\302\344\366\223\302\337\360\223\302\270\347\223\302%\002\224\302L\370\223\302\252\002\224\302\276\353\223\302\210\361\223\302J\361\223\302:\347\223\302\027\373\223\302l\364\223\302\367\360\223\302\347\363\223\302\004\375\223\302\t\350\223\302\373\366\223\302\376\366\223\302\374\372\223\302\203\364\223\302\316\002\224\302d\354\223\302\355\365\223\302\234\370\223\302\322\352\223\302\016\026\224\302\334\355\223\302\374\354\223\3023\363\223\302j\366\223\302\'\365\223\302\306\005\224\302I\361\223\302\215\371\223\302\315\367\223\302A\363\223\302-\371\223\302\231\372\223\302\r\366\223\302\321\366\223\302\223\361\223\302{\366\223\302\311\000\224\302\245\345\223\302\266\006\224\302\006\351\223\302\362\355\223\302\311\350\223\302\234\350\223\302\316\375\223\302\031\365\223\302U\363\223\302u\363\223\302\020\354\223\302E\003\224\302\360\374\223\302\343\376\223\302\243\353\223\302|\373\223\302\243\371\223\302\372\355\223\302\261\000\224\302_\355\223\302\272\366\223\302\305\357\223\302U\365\223\302\317\366\223\302\356\351\223\302e\005\224\302_\003\224\302\324\367\223\302\235\373\223\302\234\364\223\302\214\355\223\302\314\327\223\302\267\363\223\302\026\360\223\302\025\372\223\302\360\377\223\302\266\377\223\302\177\370\223\302l\372\223\302\305\366\223\302W\375\223\302\r\375\223\302.\341\223\302\300\362\223\302r\365\223\302/\371\223\302#\010\224\302\326\001\224\302\232\004\224\302\201\273\223\302\006\365\223\302/\003\224\302\356\373\223\302t\361\223\302\017\366\223\302\016\363\223\302\312\360\223\3025\364\223\302\206\351\223\302\332\375\223\302\240\353\223\302D\004\224\3022\361\223\302g\371\223\3028\002\224\302\\\005\224\302$\002\224\302\241\375\223\302\365\234\223\302\366\375\223\302\206\350\223\302\325\361\223\3028\375\223\302\246\357\223\302&\002\224\302\242\374\223\302k\364\223\302&\363\223\302*\004\224\302\216\007\224\302=\375\223\302\237\362\223\302\302\005\224\302\223\351\223\302b\003\224\302\251\362\223\302\305\277\223\302\363\276\223\302E\272\223\302\014\003\224\302V\327\223\302\305\220\223\302;\220\223\302\340\275\223\302e\340\223\302\277\362\223\302\260\370\223\302\n\355\223\302\323\366\223\302\201\364\223\302\352\004\224\302\305\376\223\302\226\362\223\3027\363\223\302\030\347\223\302_\376\223\302\037\356\223\302\332\367\223\302\325\370\223\302Q\006\224\302\'\365\223\302i\376\223\302/\351\223\302\356\367\223\302w\366\223\302\034\353\223\302C\364\223\302\374\362\223\302\325\370\223\3020\004\224\3020\357\223\302\027\004\224\302\374\002\224\302\020\371\223\302G\367\223\302!\001\224\302-\372\223\302\263\346\223\302\261\360\223\302\n\347\223\302s\374\223\302x\363\223\302\360\374\223\302\006\355\223\302`\352\223\302\367\003\224\3023\377\223\302\351\371\223\302\314\363\223\302\r\356\223\302#\361\223\302\305\370\223\302\367\356\223\302L\357\223\302Z\370\223\302\276\002\224\302\270\354\223\302\334\367\223\302\230\361\223\302XF\222\302\370\215\223\302[\374\223\302\'\010\224\302\302\352\223\302B\376\223\302O\375\223\302\214\364\223\302\200\371\223\302B\373\223\302\323\350\223\302[\350\223\302\213\365\223\302C\364\223\302\244\364\223\302\031\343\223\302-\352\223\302L\372\223\302\373\002\224\302\\\364\223\302\322\356\223\302\177\362\223\302\006\361\223\302\203\373\223\302\370\345\223\302L\376\223\302\231\371\223\302\032\371\223\302p\000\224\302A\371\223\302\213\335\223\302\201\367\223\302\257\374\223\302\323\364\223\302\n\361\223\302\330\374\223\302\225\370\223\302}\351\223\302|\366\223\302\003\366\223\302z\344\223\302\230\366\223\302,\362\223\302\224\367\223\302q\351\223\302\366\355\223\302S\365\223\302y\224\223\302}\356\223\302#\272\223\302y\356\223\302\364\372\223\302/\376\223\302\014\377\223\302\022\363\223\302\341\367\223\302\304\357\223\302\353\376\223\302\344\357\223\302t\373\223\302\302\361\223\302\203\366\223\302V\371\223\302\324\376\223\302@\370\223\302\202\373\223\302\201\365\223\302g\376\223\302\245\374\223\302\225\004\224\302\264\354\223\302\222\373\223\302;\352\223\302v\361\223\302\320\325\223\302!\372\223\302m\351\223\302\353\345\223\302\024\360\223\302\221\346\223\302\311\366\223\3026\364\223\302\n\002\224\302\335\365\223\302\225\352\223\302:\010\224\302\371\364\223\302\215\361\223\302\267\371\223\302\002\007\224\302Q\003\224\302\250\357\223\302\332\364\223\302\200\365\223\302\276\371\223\302\335\347\223\302\343\352\223\302U\353\223\302p\372\223\302\315\363\223\302\233\366\223\302q\367\223\302y\006\224\302\230\362\223\302\324\361\223\302\375\363\223\302\325\356\223\302{\361\223\302\200\367\223\302\216\354\223\302N\356\223\302 \372\223\302\317\003\224\302\315\370\223\302X\373\223\302\317\370\223\302~\372\223\302Y\002\224\302\242\001\224\302\005\375\223\302Z\363\223\302\257\351\223\302S\363\223\302H\351\223\302O\377\223\302U\000\224\302\341\361\223\302\246\370\223\302\306\372\223\302\033\351\223\302y\376\223\302\324\361\223\302\370\364\223\302\326\364\223\302\210\372\223\302\004\375\223\302\325\377\223\302\344\366\223\302\023\013\224\302 \377\223\302\272\373\223\302\307\364\223\302\250\345\223\302\247\005\224\302\312\356\223\302\346\363\223\302\201\351\223\302\272\362\223\302]\350\223\302\241\363\223\302\362\371\223\302\314\001\224\302\340\373\223\302E\277\223\302\313\350\223\302\253\372\223\302\311\353\223\302\t\362\223\302\\\373\223\3029\375\223\302\215\003\224\302\206\275\223\302\240\224\223\302\371\366\223\302\300\367\223\302\032\367\223\302K\345\223\302\347\367\223\302\033\371\223\302\307\372\223\302.\360\223\302\227\373\223\302\302\355\223\302\260\374\223\302\036\002\224\302\033\363\223\302\351\003\224\302]\004\224\302W\373\223\302\'\000\224\302,\360\223\302\004\354\223\302\301\364\223\302R\365\223\302\021\366\223\302V\363\223\302\004\362\223\302\030\372\223\302\376\361\223\302M\372\223\302\245\370\223\302\207\365\223\302\r\372\223\302\027\367\223\302\317\366\223\302\274\363\223\302\242\364\223\302Q\354\223\302\333\361\223\302\351\364\223\302\033\345\223\302s\304\223\302?\370\223\302\274\353\223\302]\351\223\302h\363\223\302\377c\223\302?\374\223\302\352\363\223\302@\377\223\302\362\361\223\302\343\372\223\302g\370\223\302\247\364\223\302?\365\223\302u\224\223\302\244\002\224\302?\370\223\302\315\354\223\302}\355\223\302(\367\223\302%\362\223\302w\364\223\302_\373\223\302\364\367\223\302_\375\223\302z\372\223\302v\357\223\302\233\357\223\302}\363\223\302\352\370\223\302\207\366\223\302\334\361\223\302\260\365\223\302)\365\223\302x\371\223\302J\362\223\302S\344\223\302>\372\223\302\336\370\223\302\346\350\223\302\375\375\223\302\234\362\223\302\235\372\223\302/\371\223\302j\355\223\302\317\357\223\302\252\353\223\302\\\372\223\302\301\362\223\302\000\363\223\302L\357\223\302\363\361\223\302\273\366\223\302\204\374\223\302u\356\223\302\304\006\224\3027\373\223\302\010\373\223\302\324\372\223\302\234\374\223\302\365\370\223\302T\360\223\302\211\367\223\302\301\376\223\302u\353\223\302\t\375\223\302*\370\223\302\376\372\223\302\304\352\223\302\277\356\223\302A\371\223\302\025\355\223\302\332\367\223\302\r\370\223\302\332\350\223\302\216\003\224\302\202\002\224\302R\371\223\302D\376\223\302s\360\223\302\364\371\223\302\212\370\223\302\022\370\223\302\277\372\223\302l\363\223\302w\372\223\302\321\371\223\302\230\367\223\302\036\374\223\302\344\362\223\302\234\365\223\302\270\374\223\302\016\365\223\302\255\357\223\302=\376\223\302r\351\223\302\215\360\223\302x\352\223\302I\355\223\302N\355\223\302\345\376\223\302\250\366\223\302\244\354\223\302\341\370\223\302\333\373\223\302t\001\224\302\257\367\223\302o\367\223\302%\375\223\302\267\362\223\302]\373\223\302Y\367\223\302\253\370\223\302\217\347\223\302|\001\224\302*\353\223\302\220\367\223\3020\002\224\302\324\372\223\302\323\367\223\302\272\000\224\302\005\370\223\302!\363\223\302\303\370\223\302c\371\223\302\204\373\223\302\345\003\224\302Q\364\223\302\343\367\223\302N\366\223\302\350\005\224\302\254\366\223\302\206\351\223\302\037\370\223\302\361\362\223\302E\373\223\302n\341\223\302\300\371\223\3028\354\223\302e\373\223\302\344\355\223\302\327\346\223\302\240\362\223\302\025\356\223\302w\000\224\302\345\366\223\302A\353\223\302\316\377\223\302\035\350\223\302\233\366\223\302\273\366\223\3023\374\223\302%\357\223\302\354\372\223\302|\351\223\302\355\005\224\302\225\350\223\302\031\367\223\3029\375\223\302\230\360\223\302*\367\223\302\231\371\223\302\016\371\223\3024\365\223\302\255\356\223\302\356\362\223\302\327\351\223\302!\355\223\302<\364\223\302Y\370\223\302\373\357\223\302\030\367\223\302\353\362\223\302\n\370\223\302g\364\223\302B\360\223\302\334\354\223\302\330\355\223\302C\350\223\302\177\353\223\302\177\000\224\302\336\364\223\302}\366\223\302x\377\223\302E\377\223\302\225\374\223\302Q\365\223\302\254\356\223\302\225\370\223\302\334\346\223\302\362\347\223\302\267\364\223\302{\372\223\302|\350\223\302\355\374\223\302\352\002\224\302\341\001\224\302z\370\223\302\227\364\223\302\331\364\223\302\275\362\223\302S\367\223\302\276\372\223\302\272\370\223\302\375\372\223\302\204\001\224\302\302\370\223\302\246\360\223\302\220\366\223\3029\352\223\302\030\372\223\302\236\337\223\302\243\375\223\302\345\002\224\302\014\357\223\302\375\370\223\302v\365\223\302\263\004\224\302S\372\223\302\300\345\223\302\240\366\223\302\264\365\223\302.\364\223\302$\010\224\3023\367\223\3021\372\223\302\323\372\223\302\024\001\224\302\255\366\223\302\242\362\223\302\367\367\223\302\261\215\223\302\311\366\223\302\264\373\223\302\314\371\223\302t\364\223\3029\370\223\302V\371\223\302\353\354\223\302\210\363\223\302\220\371\223\302\347\361\223\302\241\002\224\302]\371\223\302\365\361\223\3025\273\223\302\221\220\223\302x\001\224\302\321\223\223\302Q\364\223\302\260\317\223\302\316\271\223\302\366\327\223\3022\010\224\3025\272\223\302\232\366\223\302\005\220\223\302d\223\223\302^\352\223\302\025\277\223\302?\277\223\3026\365\223\302\300\001\224\302\014\363\223\302y\354\223\3022\364\223\302\247\354\223\302\234\365\223\302\250\371\223\302\276\350\223\302`\376\223\302N\000\224\302\371\367\223\302\376\365\223\302\341\223\223\302\225\331\223\302\304\363\223\302\033\350\223\302\212\377\223\302\254\370\223\302\334\366\223\302\352\347\223\302g\363\223\302\210\375\223\302\003\371\223\302\357\001\224\302\301\364\223\302\300\001\224\302\035\372\223\302\'\004\224\302\024\367\223\302F\003\224\302\271\373\223\302J\363\223\302L\374\223\302\366\361\223\302\375\374\223\302\334\370\223\302?\374\223\302\222\373\223\302\317\354\223\302I\362\223\302b\347\223\302w\351\223\302\235\366\223\302>\353\223\302\305\373\223\302\373\363\223\302\265\361\223\302o\365\223\302n\364\223\302\272\366\223\302\233\006\224\302W\367\223\302\312\002\224\302\250\364\223\3026\373\223\302\243\363\223\302\273\364\223\302\374\360\223\302\232\370\223\302\177\376\223\302Y\354\223\302\200\372\223\302\037\366\223\302\024\373\223\302\230\272\223\302\273\004\224\302\266\374\223\302\200\272\223\302\316\271\223\302\346\356\223\302\337\271\223\302\341\002\224\302\351\365\223\302\205\372\223\302K\362\223\302\345\373\223\302\264\362\223\302e\373\223\302\004\356\223\302\225\375\223\302w\000\224\302\375\357\223\302\027\372\223\302A\371\223\302\030\371\223\302\370\364\223\302\322\004\224\302j\263\223\302\203\375\223\302\210\376\223\302\001\001\224\302\254\360\223\302s\361\223\302u\366\223\302\224\366\223\302\'\377\223\302\351\366\223\302\352\366\223\302\365\367\223\302\200\374\223\302\273\370\223\302\374\367\223\302{\003\224\3026\005\224\302\310\357\223\302\214\363\223\302B\351\223\302\211\376\223\302\363\371\223\302\264\354\223\302\333\366\223\302\316\372\223\302\206\005\224\302\272\365\223\3026\002\224\302\277\001\224\302\250\360\223\302W\272\223\302,\004\224\302\321\376\223\302\244\215\223\302\330\362\223\302\262\277\223\302\371\367\223\302\002\006\224\302\344\377\223\302m\354\223\302\240\377\223\302B\372\223\302\264\364\223\302<\355\223\302\351\367\223\302l\357\223\302-\351\223\302\375\372\223\302\330\364\223\302\313\362\223\302 \357\223\302l\352\223\302\361\350\223\302S\346\223\302\242\363\223\302\377\377\223\302\030\002\224\302$\375\223\3024\005\224\302\334\351\223\302r\365\223\302\307\003\224\302\234\377\223\302T\375\223\302\032\363\223\302\035\004\224\302J\373\223\302M\373\223\302c\364\223\302\371\350\223\302\311\375\223\302L\370\223\302:\363\223\302C\377\223\302\263\373\223\302s\367\223\302\361\362\223\302\323\347\223\302\003\365\223\302\334\376\223\302\303\002\224\302\261\371\223\302\215\371\223\302}\364\223\302\014\374\223\302\276\371\223\302\265\365\223\302^\361\223\302\313\346\223\302~\003\224\302 \371\223\302\353\341\223\302\023\372\223\302\212\371\223\302\247\372\223\302\257\371\223\302\370\376\223\302\352\375\223\302\257\002\224\302|\370\223\302H\367\223\302z\376\223\302\271\343\223\302\201\371\223\302\314\001\224\302\317\364\223\302\360\346\223\302\332\362\223\302U\346\223\302\322\371\223\302@\002\224\302\377\374\223\302\337\370\223\302\234\376\223\302\337\004\224\302\220\352\223\302G\305\223\302t\365\223\302\226\376\223\302P\367\223\302\r\347\223\302\373\363\223\302\365\372\223\302\335\362\223\302\373\372\223\3027\362\223\302\201\362\223\302\303\352\223\302(\001\224\302\301\372\223\302^\373\223\302O\004\224\302\342\362\223\302\324\366\223\302\325\374\223\302\341\351\223\302\274\004\224\302\310\363\223\302\342\363\223\302z\364\223\302\324\371\223\302\337\370\223\302Z\363\223\302\355\352\223\302j\365\223\302\347\366\223\302O\370\223\302\232\370\223\302\212\356\223\302H\367\223\302\003\366\223\302\030\365\223\302\\\364\223\302$\361\223\302h\371\223\302A\006\224\302\260\373\223\302;\345\223\302\273\366\223\302\343\361\223\302j\355\223\302\013\374\223\302\211\351\223\302\250\366\223\302X\351\223\302\260\364\223\302\217\366\223\302\223\373\223\302\035\002\224\302/\362\223\302\311\351\223\302\\\372\223\302a\006\224\302\245\323\223\302\334\367\223\302\343\366\223\302\273\354\223\302\343\374\223\302\322\355\223\302a\367\223\302&\347\223\302`\361\223\302C\347\223\302\366\362\223\302\023\364\223\302\236\376\223\302y\366\223\302\036\376\223\302M\350\223\302\326\327\223\302\361\366\223\302\215\350\223\302\247\367\223\302)\003\224\302\201\350\223\302\177\371\223\302n\376\223\302\315\375\223\302u\370\223\302\"\372\223\302\254\372\223\302\345\355\223\302:\362\223\302\n\366\223\302\206\357\223\302\217\375\223\302\375\364\223\302\242\003\224\302\327\366\223\3023\004\224\302{\363\223\302\242\345\223\302\232\376\223\302\243\355\223\302\300\366\223\302\005\375\223\302\016\362\223\302m\372\223\302\343\000\224\302d\364\223\302\374\364\223\302\305\375\223\3029\007\224\302\202\001\224\302\210\361\223\302\313\366\223\302\362\374\223\302\n\000\224\302\377\375\223\302\245\350\223\302\260\363\223\302\235\366\223\302\305\363\223\3022\365\223\302\254\370\223\302j\371\223\3022\000\224\302\340\370\223\302Q\375\223\302\305\372\223\302=\361\223\302\241\367\223\302\036\374\223\302^\370\223\302\202\373\223\302_\366\223\302\217\351\223\302M\376\223\302\353\364\223\302\021\370\223\302\273\360\223\302\000\365\223\302\222\370\223\302\357\365\223\302)\360\223\302\317\371\223\302\231\357\223\302W\004\224\302\222\376\223\302(\375\223\302\336\365\223\302s\363\223\302\315\373\223\302;\360\223\302\347\000\224\302\252\367\223\302\225\364\223\302\253\367\223\302\017\356\223\302e\367\223\302\204\367\223\302\300\372\223\302\232\353\223\302\337\354\223\302X\363\223\302!\377\223\302i\354\223\302\345\365\223\302\350\372\223\302\000\375\223\302\236\356\223\302\\\374\223\302\317\364\223\302\031\362\223\302\247\374\223\302\331\367\223\302\'\362\223\302&\354\223\302I\363\223\302\240\363\223\302\237\362\223\302\"\376\223\302\254\354\223\302^\000\224\302\273\002\224\3028\372\223\302E\362\223\302\217\354\223\302$\367\223\302\316\367\223\302\007\366\223\302<\355\223\302\027\005\224\302\247\364\223\302\240\364\223\302\312\361\223\302\310\360\223\302B\346\223\302\307\350\223\302k\356\223\302k\363\223\302Z\354\223\302\r\363\223\302\300\372\223\302\230\220\223\302B\370\223\302\027\370\223\302\"\353\223\302\240\311\223\302#\354\223\302\360\364\223\302\204\374\223\302\315\366\223\302\362\364\223\302{\375\223\302\223\221\223\302[\221\223\302\350\372\223\302\237\360\223\302m\374\223\302\363\002\224\302R\000\224\302\025\374\223\302\231\351\223\302\215\373\223\302/\351\223\302_\326\223\302`\350\223\302\377\362\223\302\027\366\223\3027\370\223\302\037\371\223\302=\365\223\302=\354\223\302\001\003\224\302\346\367\223\302L\366\223\302\231\367\223\302\221\223\223\3028\010\224\302w\367\223\302\\\305\223\302\212\377\223\302\265\373\223\302o\347\223\302M\363\223\302]\377\223\302\214\362\223\302e\360\223\302\302\355\223\302\310\275\223\302F\374\223\302\270\310\223\3026\365\223\302\313\374\223\302\271\373\223\302^\371\223\302\356\365\223\302P\004\224\302\031\366\223\302j\356\223\302\343\374\223\302Z\001\224\3026\353\223\302\371\223\223\302t\345\223\302L\000\224\302\222\366\223\302b\347\223\302\374\340\223\302@\002\224\302\223\001\224\302B\357\223\302\365\371\223\302\306\320\223\302\313\366\223\302\231\351\223\302\311\350\223\302\330\371\223\302L\364\223\302I\347\223\302-\346\223\302a\370\223\302\364\351\223\3025\366\223\302`\360\223\302\354\366\223\302p\350\223\302O\351\223\302\305\352\223\302\225\357\223\302\363\360\223\302)\363\223\302\203\375\223\302F\371\223\302\004\362\223\302\257\366\223\302\304\362\223\302\034\367\223\302\244\002\224\302\247\365\223\3022\361\223\302\250\364\223\302q\365\223\3025\346\223\302\266\376\223\302Y\001\224\302j\372\223\302q\365\223\302z\376\223\302{\003\224\302\330\361\223\302\177\367\223\302\332\373\223\302:\355\223\302\002\360\223\302:\377\223\302+\376\223\302\313\363\223\302\000\366\223\302)\365\223\302P\375\223\302\364\350\223\302\301\350\223\302\324\354\223\302\360\374\223\302C\367\223\302\275\344\223\302\313\360\223\302\332\330\223\302x\371\223\302P\361\223\302\240\364\223\302\342\364\223\3026\363\223\302\251\371\223\302\367\364\223\302\022\364\223\302G\353\223\302e\354\223\302\264\375\223\302\013\344\223\302-\376\223\302`\363\223\302W\361\223\302\032\353\223\302\231\370\223\302\346\352\223\302\364\365\223\302\222\371\223\302Z\344\223\302X\375\223\302d\361\223\302\303\353\223\302\356\373\223\302\230\373\223\3023\371\223\302\375\366\223\302\006\356\223\3025\354\223\302\327\366\223\3022\365\223\3023\t\224\302\207\365\223\302\026\367\223\302N\363\223\302\373\365\223\302\324\366\223\302\364\372\223\302W\346\223\302\007\371\223\302\247\362\223\302\234\001\224\302\273\365\223\302\322\364\223\302\331\361\223\302\305\357\223\302z\004\224\302\272\352\223\302\213\352\223\3027\367\223\302w\354\223\302J\356\223\302w\356\223\302>\370\223\302>\372\223\302\177\005\224\302\264\000\224\302\'\t\224\302\226\371\223\302\357\364\223\302\033\000\224\302\036\354\223\302X\365\223\302\305\356\223\302\357\364\223\302\335\360\223\302V\376\223\302\r\354\223\302\213\363\223\302`\366\223\302\340\362\223\302b\366\223\302\237\010\224\302\267\361\223\302\373\346\223\302\323\362\223\302Z\370\223\302\201\357\223\302S\370\223\302\020\373\223\302\352\354\223\302X\361\223\302n\355\223\302s\346\223\302\352\370\223\302i\364\223\302y\344\223\302x\355\223\302b\352\223\302\375\362\223\302w\357\223\302\346\363\223\302\206\374\223\302C\371\223\302\010\010\224\3025\373\223\302~\360\223\302a\374\223\302\033\366\223\302\375\351\223\302\027\350\223\302\221\376\223\302\026\377\223\302V\377\223\302\021\350\223\302\334\376\223\302R\373\223\3026\362\223\302\302\346\223\302\226\372\223\302N\375\223\302Y\377\223\302\336\352\223\302\r\365\223\302\243\370\223\302!\363\223\302\326\375\223\302h\003\224\302\361\002\224\302@\361\223\302\023\363\223\302\206\002\224\302\343\351\223\302\217\355\223\302\236\363\223\302\232\365\223\302\326\354\223\302\337\366\223\302\300\352\223\302\336\357\223\302\233\253\223\302\275\002\224\302\177\002\224\302.\361\223\302\331\366\223\302\211\363\223\302\302\356\223\302\315\373\223\302\215\010\224\302m\001\224\302\273\370\223\302\315\355\223\302g\357\223\302\210\345\223\302I\353\223\302\241\373\223\302\250\350\223\302W\372\223\302\303\366\223\302\274\002\224\302\322\374\223\302\231\353\223\302\312\002\224\302\t\361\223\302,\360\223\302\260\375\223\302\357\352\223\302\202\366\223\302\376\365\223\302\351\366\223\302\241\372\223\302i\377\223\302\337\373\223\302\273\352\223\302\234\350\223\302\267\370\223\302}\350\223\3022\361\223\302\271\371\223\302q\372\223\302\231\352\223\302\002\373\223\302\262\350\223\302E\000\224\302\032\360\223\302V\343\223\302J\361\223\302.\364\223\302G\374\223\302\272\371\223\302\027\364\223\302\212\376\223\3025\367\223\302\006\000\224\302\221\367\223\302R\371\223\302\277\003\224\302\216\352\223\3028\371\223\302\267\004\224\302\200\362\223\302\300\002\224\302\244\367\223\302\220\366\223\302@\350\223\302%\367\223\302\335\375\223\302\017\374\223\302\261\365\223\302i\372\223\302U\352\223\302Z\363\223\3021\377\223\302\333\363\223\302d\357\223\302T\002\224\3023\373\223\302\t\354\223\302\026\373\223\302\022\362\223\302\202\373\223\302\'\353\223\302\302\371\223\302E\352\223\302\365\374\223\302\317\364\223\302\360\353\223\302\305\366\223\302\263\363\223\302{\357\223\302_\350\223\302n\001\224\302\313\377\223\302\363\356\223\302\'\367\223\302j\362\223\302\037\345\223\302.\357\223\302\342\373\223\302#\367\223\302\337\370\223\302\370\354\223\3026\366\223\302\265\373\223\302\220\373\223\302p\373\223\302\226\361\223\3021\361\223\302d\000\224\302\036\365\223\302o\360\223\302k\374\223\302\222\347\223\302\334\371\223\302\245\376\223\302s\351\223\302\351\352\223\302\000\374\223\302\357\377\223\302\021\367\223\302\201\357\223\302\274\372\223\302?\373\223\302\303\364\223\302\347\360\223\302\343\366\223\302\336\375\223\302\304\353\223\302\340\373\223\302\021\364\223\302\333\004\224\3023\346\223\302\020\351\223\302\272\356\223\302+\346\223\302i\364\223\302\310\361\223\302P\372\223\302r\375\223\302\271\372\223\302\375\357\223\302\241\332\223\302\244\370\223\302\'\347\223\302\341\366\223\302\026\366\223\302\030\373\223\302P\354\223\302\256\373\223\302W\357\223\302\352\360\223\302h\367\223\302\261\364\223\302\257\001\224\302%\010\224\302U\367\223\302\334\372\223\3021\007\224\302\350\370\223\302~\374\223\302Y\001\224\302<\357\223\3028\357\223\302\234\370\223\302\256\357\223\3023\001\224\302\322\357\223\302>\372\223\302\331\370\223\3023\007\224\302\207\342\223\302\275\371\223\302t\375\223\302A\363\223\302%\372\223\302.\367\223\302U\367\223\302`\353\223\302\276\365\223\302\005\375\223\302\204\357\223\302\006\002\224\302\301\362\223\302\357\357\223\302\222\352\223\302{\001\224\302\243\371\223\302\336\360\223\302F\372\223\302\203\363\223\302\253\345\223\302L\356\223\302\006\375\223\302I\371\223\302\313\002\224\302\177\374\223\302.\365\223\302y\372\223\302g\373\223\302\346\360\223\302h\371\223\3024\351\223\302\270\373\223\302\216\371\223\302\r\362\223\302\335\353\223\302\333\357\223\302\234\377\223\302\263\352\223\302t\343\223\302\350\367\223\302\300\376\223\302\313\347\223\302\261\366\223\302\323\370\223\302\326\361\223\302\352\366\223\302\326\373\223\302&\004\224\302<\370\223\302\236\366\223\3026\367\223\302\224\351\223\302\323\364\223\302\025\354\223\302\212\370\223\302\227\357\223\302C\001\224\302\250\351\223\302S\372\223\302\224\361\223\302v\370\223\302\305\364\223\302\236\366\223\302`\374\223\302\257\365\223\302\"\366\223\302\225\000\224\302r\364\223\302\316\000\224\302\030\344\223\302a\350\223\302\026\354\223\302\206\373\223\302\245\376\223\302\357\366\223\302\252\365\223\302B\005\224\302\342\361\223\302\\\357\223\302\\\367\223\302\214\376\223\302n\350\223\302\304\374\223\302X\366\223\302:\356\223\302\036\373\223\302i\347\223\302#\375\223\3027\362\223\302\354\363\223\302\246\361\223\302J\362\223\302\024\375\223\302\252\366\223\302V\344\223\302\307\346\223\302\311\370\223\302\t\370\223\302Q\360\223\302\177\364\223\302i\003\224\302@\376\223\302\252\356\223\302\317\365\223\302~\350\223\302\355\344\223\302\325\377\223\302n\372\223\302\252\360\223\302\373\367\223\302+\364\223\302\031\355\223\302\001\357\223\302\220\364\223\302R\353\223\302\032\376\223\302\236\000\224\302\335\376\223\302\031\001\224\302\\\360\223\302\002\000\224\302<\372\223\302\367\366\223\302\023\355\223\302d\371\223\302\243\000\224\302\271\363\223\302Z\370\223\302\343\355\223\302\262\365\223\3024\364\223\302\314\354\223\302\303\001\224\302s\351\223\302.\372\223\302\241\353\223\302\327\374\223\302D\351\223\302v\362\223\302\346\365\223\302\245\370\223\302\002\364\223\302\374\373\223\302\016\001\224\302q\366\223\302\205\346\223\302\351\371\223\302\177\003\224\302&\376\223\302\311\350\223\302S\000\224\302\001\351\223\302\334\354\223\302\325\373\223\302\225\344\223\302\037\364\223\302W\370\223\302y\363\223\302\313\357\223\3022\363\223\302\r\375\223\302\275\366\223\302&\363\223\302\002\367\223\302\345\373\223\302\010\354\223\302f\006\224\302\217\002\224\302\013\354\223\302v\367\223\302\260\377\223\302\211\372\223\302\234\375\223\302\266\370\223\302\302\000\224\302K\373\223\3025\372\223\302\271\003\224\302\014\361\223\302x\367\223\302\273\366\223\302\270\360\223\302\305\376\223\302Y\373\223\302\277\365\223\302\274\374\223\302\355\000\224\302\354\344\223\302\371\347\223\3027\366\223\302p\375\223\302u\366\223\302\265\351\223\302\234\361\223\302\330\362\223\302*\354\223\302\034\367\223\302 \370\223\302\307\003\224\302\213\376\223\302V\355\223\302\006\345\223\302\365\364\223\302\270\377\223\302\245\362\223\302b\004\224\302\014\371\223\302\201\377\223\302\222\373\223\3025\354\223\302a\350\223\302\261\347\223\302\261\364\223\302\216\372\223\302n\373\223\302\"\371\223\302\256\360\223\302\315\000\224\302\324\362\223\302\177\360\223\302M\002\224\302\322\243\223\302G\365\223\302\332\366\223\302B\371\223\302e\354\223\302]\001\224\302j\377\223\302Y\372\223\302\370\364\223\302\251\371\223\302\373\354\223\302\003\367\223\302!\365\223\302\004\374\223\302\373\364\223\302N\370\223\302L\373\223\302\340\373\223\302X\370\223\302\343\353\223\302+\364\223\302\217\362\223\302\377\356\223\302\321\366\223\302\010\375\223\3025\347\223\302m\354\223\302(\001\224\3026\377\223\302\351\375\223\302\242\373\223\302U\002\224\302\324\000\224\3022\375\223\302\304\002\224\302\r\371\223\302\322\346\223\302\333\367\223\302i\365\223\302\210\375\223\302\200\341\223\302\332\374\223\302\274\347\223\302\366\372\223\3029\372\223\302\360\347\223\302\004\361\223\302\025\365\223\302\266\371\223\302\250\374\223\302\256\355\223\302\260\365\223\302\267\002\224\302B\275\223\302n\377\223\302$\370\223\302\246\003\224\302A\003\224\302\375\007\224\302\016\345\223\302\347\364\223\302\345\344\223\302\304\365\223\302,\346\223\302\001\364\223\302]\354\223\302i\001\224\302V\374\223\3027\352\223\302\274\370\223\302\237\357\223\302\331\372\223\302g\352\223\302\220\366\223\302\'\001\224\302^\370\223\302\016\366\223\302\372\374\223\302n\370\223\302{\377\223\302\314\003\224\302\202\373\223\302y\374\223\302z\364\223\302.\353\223\302\013\370\223\302\343\363\223\302\034\350\223\302[\363\223\302\337\361\223\302\t\363\223\302/\372\223\302E\365\223\302i\370\223\302M\366\223\302\357\374\223\302\247\001\224\302\326\351\223\302\252\002\224\302\325\370\223\302\332\000\224\302\003\375\223\302\257\366\223\302\266\361\223\302\263\351\223\302\300\363\223\302\036\350\223\302{\377\223\302\273\354\223\302d\363\223\302\211\372\223\302\260\362\223\302\237\355\223\302\027\372\223\302\344\362\223\302\213\002\224\3021\370\223\302Z\372\223\302\n\364\223\302\303\364\223\302S\353\223\302\006\362\223\302\241\360\223\302\"\352\223\302\365\376\223\302\352\362\223\302\211\366\223\302s\364\223\302\374\346\223\302]\344\223\302\330\377\223\302E\363\223\302\010\000\224\302\r\372\223\302n\351\223\302\035\375\223\302\350\373\223\302`\000\224\302\017\000\224\302\027\372\223\302!\363\223\302z\376\223\302\266\372\223\302\232\363\223\302D\362\223\302\372\343\223\302@\360\223\302\"\003\224\302\367\340\223\302E\370\223\302\316\347\223\302i\375\223\3020\374\223\302`\003\224\302\253\353\223\302\207\362\223\302o\001\224\302m\370\223\302x\356\223\302\302\371\223\302\253\355\223\302=\354\223\302U\365\223\302m\365\223\3028\370\223\302\257\370\223\302\223\360\223\302\217\377\223\302v\346\223\302\342\357\223\302q\371\223\302\335\370\223\302O\003\224\302\366\363\223\302\037\373\223\302\220\371\223\3026\373\223\302\306\364\223\302\305\000\224\302q\364\223\302\216\364\223\302\202\363\223\302J\372\223\302Q\003\224\302\376\371\223\302c\370\223\302\177\007\224\302\320\362\223\302*\370\223\302\035\360\223\302\032\357\223\302\350\366\223\302\254\365\223\302\213\371\223\302\214\004\224\302\235\376\223\302\373\007\224\302\014\000\224\302d\344\223\302\377\374\223\302\363\362\223\302\324\353\223\302f\373\223\302\210\005\224\302\306\354\223\302z\371\223\302\223\373\223\302\311\337\223\302i\367\223\302\253\366\223\302k\370\223\302\365\366\223\302|\363\223\302m\355\223\302\241\367\223\3026\364\223\302\265\346\223\3022\367\223\302\033\367\223\302\253\360\223\302c\370\223\302\376\351\223\302\261\373\223\302\222\367\223\302\205\356\223\302\221\004\224\302\242\341\223\302\027\370\223\302\244\345\223\302\234\370\223\302\360\001\224\302u\362\223\302\374\366\223\302\217\377\223\302\251\365\223\302\016\354\223\302I\371\223\302\024\366\223\302?\375\223\302]\001\224\302E\373\223\302\'\367\223\302$\370\223\302*\002\224\302\021\346\223\302\014\363\223\302\251\355\223\302\253\362\223\302\"\363\223\302\022\355\223\302\214\363\223\302\276\371\223\302\324\367\223\302#\001\224\302\240\377\223\302\274\370\223\302\372\377\223\302\373\001\224\302Y\003\224\302 \354\223\302\371\366\223\302Q\344\223\302\346\361\223\302\206\351\223\302N\357\223\302A\352\223\302\351\346\223\302\371\372\223\302\310\000\224\302r\370\223\302\212\005\224\302\361\347\223\302\223\373\223\302z\373\223\302\357\371\223\302`\370\223\302R\363\223\302x\357\223\302\245\365\223\302\343\345\223\302M\365\223\302\274\357\223\302\370\372\223\302\223\366\223\302{\003\224\302O\377\223\302\n\351\223\302c\357\223\302\363\357\223\302Y\373\223\302\371\366\223\302^\367\223\302%\377\223\302\013\365\223\302\244\002\224\302\265\372\223\302S\355\223\302\370\371\223\302_\363\223\302\331\365\223\302\216\366\223\302\037\350\223\302C\374\223\302(\376\223\302\233\353\223\302\304\362\223\302U\367\223\302\216\362\223\302\214\367\223\302\335\363\223\302\251\345\223\302r\357\223\302H\005\224\302i\365\223\302b\371\223\302}\002\224\302\002\363\223\302\252\367\223\302\007\371\223\302\310\346\223\302\306\364\223\302A\353\223\302;\374\223\302W\377\223\302\275\366\223\302\276\371\223\302\367\374\223\302.\357\223\302\024\353\223\302\352\352\223\302B\377\223\302\331\357\223\302\016\000\224\302\355\371\223\302t\371\223\302?\372\223\302s\362\223\302\217\373\223\302\216\002\224\302v\002\224\302D\365\223\302k\371\223\302S\374\223\302\257\377\223\302N\367\223\302\272\364\223\302e\366\223\302\374\366\223\302\216\370\223\3024\003\224\302,\355\223\302\256\355\223\302\021\376\223\302\277\371\223\302\014\350\223\302\355\373\223\302W\372\223\302\177\371\223\302\354\373\223\302;\363\223\302-\365\223\302p\372\223\302C\365\223\302#\365\223\302\"\002\224\302\233\361\223\302-\374\223\302q\360\223\302\247\375\223\302\312\365\223\302V\365\223\302\n\371\223\302\305\365\223\302\270\371\223\302z\361\223\302\221\361\223\302q\367\223\302\222\372\223\302\250\364\223\302\342\355\223\302\310\366\223\302h\002\224\302a\373\223\302u\003\224\302h\377\223\302\342\364\223\302]\373\223\302\346\366\223\302\t\374\223\302\\\357\223\302\245\001\224\302\230\361\223\302p\365\223\302\324\375\223\302\030\356\223\302\245\374\223\302+\000\224\302@\361\223\3020\001\224\302m\361\223\302 \376\223\302\016\351\223\302\212\352\223\302\330\345\223\302\226\371\223\302\273\366\223\302p\001\224\302\317\363\223\302\032\373\223\302\226\347\223\302\277\360\223\302\215\002\224\302\203\362\223\302H\362\223\302\374\374\223\302\325\357\223\302\210\372\223\302\005\371\223\3024\371\223\302\367\373\223\302T\371\223\302\322\372\223\302\275\362\223\302\177\350\223\302f\354\223\302\243\367\223\302\263\375\223\3020\350\223\302\300\356\223\302\363\350\223\302Z\001\224\302\245\371\223\302\\\365\223\302W\370\223\302_\343\223\302\021\362\223\302\253\367\223\302\207\373\223\3020\374\223\302k\371\223\302/\363\223\302 \373\223\302\035\363\223\302p\364\223\302\371\367\223\302\214\371\223\302)\366\223\302\353\366\223\302 \376\223\302X\002\224\302v\365\223\302\"\362\223\302\025\372\223\302B\007\224\302\305\353\223\302\024\356\223\302\316\355\223\302\233\353\223\302:\364\223\302\265\361\223\302\244\003\224\302\322\001\224\302\346\351\223\302\"\367\223\302\216\365\223\302\220\351\223\302e\357\223\302\032\000\224\302\\\005\224\302g\352\223\302m\366\223\302D\355\223\302\007\362\223\302\024\260\223\3028\330\223\302\324\362\223\302_\366\223\302\225\375\223\302I\375\223\302\321\363\223\302\222\366\223\302\024\367\223\302\276\377\223\302U\373\223\302\306\356\223\302\300\364\223\302l\365\223\3020\375\223\302\024\361\223\302\037\373\223\302\270\362\223\302\317\353\223\302#\362\223\302\314\346\223\302\024\365\223\302\020\372\223\302E\345\223\302\275\003\224\302\320\365\223\302\202\372\223\302\366\001\224\302\243\370\223\302\212\371\223\302\271\377\223\302\013\370\223\302\340\002\224\302_\345\223\302l\370\223\302\001\374\223\302\006\365\223\302\331\367\223\302S\002\224\302{\361\223\302\244\362\223\302\014\351\223\302\325\361\223\302\213\373\223\302\374\371\223\302t\361\223\302|\367\223\302N\363\223\302\240\360\223\302\322\374\223\302\340\373\223\302\256\002\224\302\366\377\223\3024\361\223\302\026\371\223\302\237\377\223\302\213\375\223\302\235\365\223\302i\374\223\302\227\365\223\302\254\363\223\302\252\367\223\302m\372\223\302\325\001\224\302\237\363\223\302\272\360\223\302\221\373\223\302\324\366\223\302\315\365\223\302\037\350\223\302\216\354\223\302\243\371\223\302\351\370\223\302\224\354\223\302\'\365\223\302\004\365\223\302\033\357\223\302$\354\223\302\232\367\223\302\354\001\224\302\266\365\223\302\346\373\223\302q\372\223\302\306\372\223\302a\366\223\302\354\373\223\302(\372\223\302d\372\223\302_\361\223\302\377\371\223\302&\373\223\302\271\357\223\302\240\375\223\302|\352\223\302s\366\223\302\004\366\223\302l\362\223\302\026\365\223\302\322\003\224\302<\371\223\302\032\375\223\302a\365\223\302\240\362\223\302F\361\223\302M\350\223\302\367\366\223\302\236\353\223\302d\373\223\302\371\357\223\302\363\352\223\302\261\371\223\302\253\363\223\302\333\372\223\302z\355\223\302(\340\223\302O\360\223\302\352\372\223\302n\366\223\302\303\356\223\302a\362\223\302O\345\223\302\330\373\223\302&\360\223\302\277\370\223\302\024\002\224\302\271\366\223\302\"\354\223\302\202\370\223\302\000\374\223\302\322\361\223\302H\373\223\302M\365\223\302D\374\223\302i\377\223\302\364\362\223\302K\332\223\302\377\371\223\302\010\360\223\3021\375\223\302\205\364\223\302\177\370\223\302\325\353\223\302\241\361\223\302f\363\223\302k\006\224\302f\375\223\302u\371\223\302~\366\223\302\375\364\223\302\211\371\223\302\330\366\223\302y\365\223\302\364\362\223\302?\002\224\302\264\373\223\302\370\357\223\302\200\366\223\302[\356\223\302\377\376\223\302\r\372\223\302u\355\223\302%\375\223\302G\350\223\302/\361\223\302\"\364\223\302V\375\223\302\212\365\223\302\215\007\224\302\375\366\223\302\016\376\223\302G\354\223\302\355\347\223\302\360\366\223\302i\364\223\302\370\343\223\302p\371\223\302\224\354\223\302\377\357\223\302\374\364\223\302\324\364\223\302\227\356\223\302l\367\223\302\265\363\223\302\223\354\223\302X\375\223\302;\365\223\302\227\371\223\302\t\371\223\302\304\344\223\302\245\350\223\302L\001\224\302\254\366\223\302B\367\223\302b\363\223\302\370\355\223\302\177\377\223\302n\362\223\302\320\003\224\302\375\376\223\302\221\361\223\302\260\367\223\302k\372\223\3026\372\223\302Q\373\223\302\325\367\223\302b\353\223\302\313\370\223\302D\371\223\302\222\362\223\302\365\003\224\302\322\376\223\302\265\377\223\302\257\376\223\302\273\360\223\302p\363\223\302\364\344\223\302/\372\223\302Z\373\223\302\302\372\223\302\364\366\223\302\342\371\223\302\331\362\223\302\260\374\223\302N\373\223\302R\363\223\302\331\000\224\302\245\367\223\302A\375\223\302\334\356\223\302\030\373\223\302\253\003\224\302\262\355\223\302\023\374\223\302\001\373\223\302k\001\224\302\224\347\223\302\355\003\224\302\262\007\224\302C\373\223\302>\366\223\3027\370\223\302\014\370\223\302\374\375\223\302\006\367\223\302`\350\223\302J\004\224\302\226\002\224\302B\372\223\302\270\377\223\302\366\373\223\302E\370\223\302\257\363\223\302\242\363\223\302\270\364\223\302\365\372\223\302\037\361\223\302w\362\223\302\305\376\223\302\376\366\223\302T\373\223\302>\362\223\302\214\367\223\302\270\370\223\302r\361\223\302\224\366\223\3026\365\223\302\312\366\223\302\357\353\223\302\237\376\223\302\336\000\224\302\255\363\223\3028\374\223\302\336\364\223\302P\353\223\302\027\366\223\302\231\362\223\302z\361\223\302\230\351\223\302\033\371\223\302\021\363\223\302b\010\224\302\352\357\223\302\206\372\223\302\212\370\223\302\031\371\223\302\371\347\223\302\276\006\224\302\357\361\223\302%\372\223\302,\350\223\302\"\367\223\302\204\362\223\302\023\366\223\302\345\370\223\3028\377\223\302I\362\223\302\214\000\224\302\251\002\224\3026\372\223\302e\362\223\3022\367\223\302\016\376\223\302\210\004\224\302\245\354\223\302\333\361\223\302D\350\223\302\247\371\223\302Z\355\223\302\035\366\223\302 \373\223\302l\356\223\302\335\366\223\302\002\362\223\302\257\362\223\302\275\375\223\302\370\366\223\302\340\350\223\3021\004\224\302\027\001\224\302\245\375\223\3028\353\223\302\220\345\223\302]\362\223\302x\360\223\302\257\000\224\302r\371\223\302L\375\223\302\226\363\223\302!\365\223\302\304\001\224\302\272\357\223\302\303\375\223\302\354\362\223\302{\373\223\3023\374\223\302\261\364\223\302\330\377\223\302\'\370\223\302\311\373\223\302\316\371\223\302h\361\223\302\016\361\223\302M\364\223\302S\003\224\3023\361\223\302\342\373\223\302\006\373\223\302T\377\223\302n\374\223\302\244\371\223\302T\352\223\302\210\344\223\302c\363\223\302w\363\223\302\031\347\223\302G\365\223\302\276\370\223\302\344\362\223\302\331\373\223\302Z\370\223\302r\376\223\3026\371\223\302\306\374\223\302\357\370\223\302e\366\223\302s\357\223\302\325\360\223\302\364\364\223\302c\370\223\302\206\352\223\3022\366\223\302\211\362\223\302*\371\223\302p\364\223\302\340\373\223\302L\371\223\302\345\364\223\302\276\002\224\302O\377\223\302\276\364\223\302\264\371\223\302\272\344\223\302y\362\223\302#\364\223\302\327\377\223\302Q\361\223\302\t\375\223\3020\373\223\302\007\362\223\302\t\377\223\302\305\354\223\302h\353\223\302\270\346\223\302\257\373\223\302c\375\223\302\346\351\223\302_\376\223\302\242\361\223\302\341\370\223\302\375\371\223\302\362\372\223\302\347\366\223\302+\361\223\302\250\373\223\302_\363\223\302>\366\223\302\202\357\223\302\177\373\223\302\265\343\223\3026\356\223\302h\351\223\302\331\366\223\302~\375\223\302\024\002\224\302\276\362\223\302\231\002\224\302@\002\224\302n\366\223\302G\350\223\302\336\375\223\302\037\352\223\302\235\366\223\302\254\360\223\302\304\351\223\302\265\000\224\302\254\377\223\302\017\001\224\302\350\375\223\302\310\351\223\3020\002\224\302\277\361\223\302\330\352\223\302\247\372\223\3024\344\223\302\225\001\224\302=\366\223\302\335\367\223\3027\366\223\302j\370\223\302\376\352\223\302\367\367\223\302*\370\223\302\005\373\223\302\224\001\224\302\037\363\223\302&\357\223\302\310\361\223\302F\367\223\302=\001\224\302\354\372\223\302\337\363\223\302@\377\223\302\030\356\223\302t\352\223\302\230\375\223\302i\365\223\302\264\373\223\302G\003\224\302\016\356\223\302\023\350\223\302w\366\223\302G\367\223\302F\374\223\302Q\347\223\302D\366\223\302^\370\223\302\376\345\223\302\r\342\223\302\226\377\223\302\'\374\223\302\266\354\223\302U\361\223\302\026\364\223\302\311\372\223\302\325\375\223\302\340\346\223\302\265\362\223\302\333\366\223\302\265\366\223\302\216\366\223\302?\375\223\3022\365\223\302X\361\223\302\364\374\223\302\'\366\223\302\024\357\223\3023\001\224\302\264\356\223\302`\370\223\302s\367\223\302\263\373\223\302\226\363\223\302\203\364\223\302\262\362\223\302Q\372\223\3023\370\223\302U\360\223\302k\363\223\302\224\360\223\302\306\376\223\302;\347\223\302\216\360\223\302O\372\223\302\314\363\223\302\345\360\223\302\365\363\223\302\276\366\223\302\237\373\223\302\212\356\223\302+\363\223\302\355\365\223\302\336\372\223\302\344\371\223\302\t\355\223\302\\\353\223\302z\366\223\302/\006\224\302\325\371\223\302\374\374\223\302\376\002\224\302\337\372\223\302\371\366\223\302\202\362\223\302~\315\223\302\006\367\223\302\315\353\223\302\230\376\223\302\370\362\223\302\026\003\224\302<\367\223\302\254\371\223\302\330\366\223\302\036\001\224\302\262\354\223\302\200\371\223\302\331\366\223\302\341\372\223\3021\362\223\302\310\365\223\302\266\354\223\302\337\374\223\302\371\366\223\302\025\376\223\3022\363\223\302\254\002\224\302\026\003\224\302\241\366\223\302:\362\223\302=\361\223\302\246\356\223\302\357\354\223\302\223\356\223\302\335\363\223\302\030\004\224\302L\353\223\302\330\002\224\3023\355\223\302\006\377\223\302y\371\223\302%\362\223\302\326\376\223\302\201\363\223\302-\374\223\302\376\375\223\302\205\350\223\302\226\361\223\302:\374\223\302\205\362\223\302}\001\224\302\254\371\223\302\323\350\223\302\202\365\223\302\211\366\223\302\363\365\223\302v\363\223\302\322\366\223\302H\372\223\302\031\367\223\302\343\366\223\302_\000\224\302\370\372\223\302M\350\223\3021\370\223\302\250\366\223\302\263\373\223\302>\344\223\302:\352\223\302\313\330\223\302\327\361\223\302\331\357\223\302\303\366\223\302\364\373\223\302*\377\223\302\021\376\223\302\345\370\223\302\026\360\223\302\236\366\223\302\370\372\223\302\246\375\223\302\234\361\223\302\376\362\223\302f\364\223\302\207\353\223\302\350\361\223\302\320\365\223\302$\356\223\302\305\362\223\302\324\357\223\302\306\361\223\302\350\366\223\302\301\007\224\302m\367\223\302\017\372\223\302y\361\223\302\004\364\223\302I\355\223\302l\362\223\302_\375\223\302n\347\223\302.\004\224\302N\354\223\302\316\350\223\302\032\365\223\302\034\374\223\302m\002\224\302\323\366\223\302\257\360\223\302@\352\223\302\237\363\223\302n\372\223\302\227\376\223\302\231\363\223\302\315\000\224\302q\373\223\302\236\002\224\302r\000\224\302-\374\223\302Q\371\223\302_\356\223\302@\371\223\302\300\372\223\302\250\351\223\302\212\365\223\302\367\362\223\302\270\374\223\302\260\367\223\302W\371\223\302\311\345\223\302\027\365\223\302x\375\223\302i\002\224\302\023\365\223\302\r\003\224\302\310\375\223\302\377\001\224\302\272\376\223\302K\366\223\302B\004\224\302\301\366\223\302:\001\224\302\235\356\223\302\252\355\223\302\241\347\223\302$\004\224\302\244\002\224\302\342\352\223\302\206\362\223\302r\351\223\302\002\360\223\302\375\001\224\302)\373\223\302\334\366\223\302\371\367\223\302\272\371\223\302\310\375\223\302\211\365\223\302\212\375\223\302\226\347\223\302\006\375\223\302q\373\223\302r\350\223\302y\356\223\302\202\355\223\302\370\374\223\302\377\361\223\302\305\240\223\302X\372\223\302~\376\223\302\337\364\223\302P\351\223\302\020\353\223\302F\357\223\302\203\363\223\302j\372\223\302\373\365\223\302\372\374\223\302\327\367\223\302r\010\224\302r\361\223\302\234\366\223\302D\347\223\302=\374\223\302\313\335\223\302H\377\223\302p\362\223\302\231\360\223\302\343\372\223\302\307\364\223\302\205\366\223\302\212\362\223\302\265\007\224\3024\376\223\302&\347\223\302\003\377\223\302\354\361\223\302\214\372\223\302\032\003\224\302\316\372\223\302\026\000\224\302\270\332\223\302\212\376\223\302\t\366\223\302\016\357\223\302\377\352\223\302g\367\223\302w\351\223\302\304\370\223\302&\355\223\302\202\375\223\302}\366\223\302\320\374\223\302O\002\224\302K\002\224\302\206\366\223\302W\365\223\302\024\375\223\302\274\003\224\302\355\366\223\302\034\371\223\302\326\000\224\302\251\356\223\302\003\367\223\302\200\366\223\302X\371\223\302\247\370\223\302\005\365\223\302\345\003\224\302w\360\223\302 \367\223\302!\372\223\302\232\372\223\302\242\367\223\302\303\351\223\302\271\211\223\302\025\353\223\302\302\367\223\302\262\002\224\302i\000\224\302v\362\223\302\236\377\223\302\017\367\223\302\004\375\223\302\342\377\223\302\013\366\223\302\361\340\223\302\212\001\224\302t\226\223\302z\372\223\302N\375\223\302|\361\223\302e\372\223\302.\004\224\302\251\375\223\302}\220\223\302\321\366\223\302J\363\223\302R\374\223\302\242\223\223\302\215\364\223\302\230\366\223\302g\350\223\302\271\375\223\302\231\003\224\302\335\367\223\302\223\001\224\302^\370\223\302=\353\223\302\365\374\223\302\321\361\223\302\360\364\223\302\n\370\223\302\364\375\223\302\355\364\223\3028\374\223\302\257\374\223\302\371\002\224\302?\350\223\3022\370\223\302\363\343\223\302\016\370\223\302\331\357\223\302\033\375\223\302\000\372\223\302\273\002\224\302\234\356\223\302\312\366\223\302\230\363\223\302\375\276\223\302H\354\223\302z\357\223\302\021\370\223\302\367\355\223\302b\362\223\302\245\354\223\302\322\356\223\302v\002\224\302\364\366\223\302\366\341\223\302\231\002\224\302p\000\224\302\271\361\223\302\347\000\224\302\203\356\223\3028\372\223\302\376\003\224\302\354\356\223\302B\364\223\302\230\003\224\302\027\346\223\302g\355\223\302\023\375\223\302m\004\224\302_\374\223\302R\001\224\302X\371\223\302%\364\223\3028\350\223\302\247\373\223\302\262\366\223\302.\352\223\302\360\374\223\302\255\363\223\302\347\003\224\302;\375\223\302;\350\223\302J\002\224\302O\000\224\302\320\001\224\302\267\376\223\302&\371\223\302\305\356\223\302~\370\223\302\001\361\223\302\331\374\223\302\246\376\223\302\213\377\223\302\000\363\223\302h\377\223\302Z\360\223\302\216\365\223\302\240\363\223\3022\366\223\302y\001\224\302\205\361\223\302S\344\223\302\354\372\223\302p\002\224\302\332\363\223\302\310\366\223\302\307\376\223\302\303\374\223\302\000\367\223\302\307\346\223\302\322\351\223\302\210\366\223\302\236\374\223\302q\003\224\302e\366\223\3028\346\223\302\342\363\223\302_\341\223\302\251\356\223\302\361\365\223\302\220\373\223\302\206\366\223\302\263\356\223\302\346\002\224\302c\363\223\302v\366\223\302`\360\223\302?\353\223\302\314\374\223\302\224\365\223\302\317\366\223\302\264\000\224\302\244\371\223\302\031\372\223\302\007\372\223\302\311\322\223\302f\373\223\302/\377\223\302\'\366\223\302\377\360\223\302\232\374\223\302\242\375\223\302\222\372\223\302?\363\223\302\"\345\223\302K\355\223\302\320\371\223\302e\001\224\302\311\375\223\302\006\001\224\302q\367\223\302\237\376\223\302\204\372\223\302\373\367\223\302\261\356\223\302_\002\224\302\211\366\223\302@\371\223\302\024\010\224\302F\371\223\302A\370\223\302\027\375\223\302\n\351\223\302\302\346\223\302`\374\223\302s\347\223\302X\367\223\302$\002\224\302\\\253\223\302\341\001\224\302O\344\223\302\225\360\223\302\274\351\223\302>\344\223\302\226\377\223\302\\\010\224\302m\372\223\302A\003\224\302\241\377\223\302\343\363\223\302\010\363\223\302\023\365\223\302\215\375\223\302z\377\223\302\361\360\223\302\201\366\223\302]\351\223\302\364\376\223\302y\357\223\302M\362\223\302\177\375\223\302\021\365\223\302\316\356\223\302\306\367\223\302\301\347\223\302u\352\223\302W\376\223\302Z\355\223\302\215\352\223\302\365\006\224\302l\370\223\302\257\377\223\302k\370\223\302)\361\223\302\304\343\223\302\016\350\223\302\336\357\223\302\201\371\223\302\037\364\223\302\362\365\223\302\033\002\224\302\216\376\223\302{\372\223\302\245\374\223\302\312\375\223\302\021\375\223\302\223\362\223\302\266\371\223\302\242\365\223\302\220\001\224\302L\001\224\302d\364\223\302\236\363\223\302\220\357\223\302.\372\223\302\261\367\223\302\341\364\223\302\360\366\223\302\215\372\223\302/\373\223\302\202\362\223\302\020\372\223\302S\332\223\3024\365\223\3020\374\223\302)\007\224\302\351\343\223\302\344\010\224\302s\343\223\302`\365\223\302\367\355\223\302\273\373\223\302\024\366\223\302`\344\223\3021\002\224\302]\367\223\302\027\005\224\302\364\373\223\302a\354\223\302\312\367\223\302\030\354\223\302\330\363\223\302T\363\223\302\303\351\223\302N\371\223\302\264\353\223\302\030\367\223\302\310\367\223\302\222\376\223\302\200\346\223\302}\006\224\302n\370\223\302\210\363\223\302W\375\223\302\216\010\224\302z\344\223\302f\354\223\302b\004\224\302\272\374\223\302\233\001\224\302\037\276\223\302]\365\223\302#\373\223\302\212\353\223\302\222\356\223\302J\365\223\302\372\346\223\302\367\370\223\302\253\351\223\3020\356\223\302\310\000\224\302\336\335\223\302\300\363\223\302k\006\224\302;\010\224\302g\373\223\302\357\370\223\302}\364\223\302\022\374\223\3020\372\223\302\253\363\223\302\030\361\223\302L\366\223\302\310\365\223\3025\003\224\302;\364\223\302\307\372\223\302\312\370\223\302Y\371\223\302}\351\223\302\212\010\224\302Z\002\224\302P\374\223\302\255\364\223\302\361\377\223\302d\373\223\302\214\367\223\302\302\001\224\302\266\372\223\302\223\370\223\302\307\362\223\302\312\345\223\302\232\363\223\302\277\355\223\302\357\360\223\302\"\363\223\302\000\365\223\302\204\371\223\302:\360\223\302\300\370\223\302n\363\223\302\032\371\223\302\377\351\223\302h\370\223\302\300\370\223\302\267\375\223\302\363\365\223\302\353\362\223\302\343\376\223\302\213\357\223\302\351\331\223\302+\365\223\302\245\366\223\302k\005\224\302\232\363\223\302P\361\223\302\245\003\224\302\201\372\223\302i\351\223\302\214\355\223\302\203\360\223\302\274\362\223\302\037\356\223\302\321\344\223\302\255\001\224\302\352\371\223\3021\373\223\302\304\372\223\302\256\000\224\302\373\363\223\302\037\362\223\302?\365\223\302\351\354\223\302\220\370\223\302h\377\223\302g\367\223\302f\370\223\302\245\371\223\302f\363\223\302\252\356\223\302\212\006\224\302 \367\223\302\255\362\223\302\273\370\223\302x\375\223\302\371\364\223\302\034\356\223\302:\375\223\302\245\364\223\302\257\361\223\3022\374\223\302\235\001\224\302\271\002\224\302\361\364\223\3020\376\223\302\371\374\223\302\350\367\223\302e\366\223\302M\367\223\302u\001\224\302\035\374\223\302<\376\223\302\351\000\224\302\010\365\223\302y\375\223\302X\002\224\302\367\372\223\302\347\361\223\302\326\002\224\3020\360\223\302\241\003\224\302\315\365\223\302W\350\223\302\215\372\223\302\341\361\223\302X\367\223\302\367\354\223\302\231\352\223\302\213\360\223\302n\372\223\302k\376\223\302\013\003\224\302\262\355\223\302:\363\223\302\376\366\223\302\205\004\224\302\014\010\224\302R\347\223\302\220\365\223\302?\360\223\302\316\363\223\302\275\003\224\302\347\366\223\302?\362\223\302\201\365\223\302J\346\223\302\372\002\224\302\374\367\223\302\021\366\223\302G\371\223\302$\362\223\302\221\004\224\302\346\340\223\302\263\357\223\302\323\366\223\302\247\350\223\302O\372\223\302\237\350\223\302\356\351\223\302>\362\223\302\373\363\223\302\266\004\224\302\035\355\223\302|\322\223\302\275\351\223\302\022\361\223\302\370\370\223\302\t\356\223\302\305\374\223\302\274\366\223\302*\007\224\302\223\361\223\302\265\363\223\302Y\007\224\302\250\372\223\302P\373\223\302\350\361\223\302\030\362\223\302\202\371\223\302\357\325\223\302$\353\223\302\360\375\223\302\373\352\223\302\350\366\223\302\316\361\223\302\213\374\223\302\035\376\223\302d\347\223\302\024\356\223\302\344\351\223\302\371\343\223\302\236\341\223\302\352\341\223\302\274\002\224\302\333\375\223\302N\374\223\302\356\347\223\3022\365\223\302\341\347\223\302\251\371\223\302<\356\223\302\336\370\223\302\346\001\224\302\221\000\224\302\322\003\224\3026\372\223\302f\001\224\302\277\350\223\302\031\001\224\302_\374\223\302\033\364\223\302\351\004\224\302\243\004\224\302@\000\224\302M\354\223\302(\356\223\302J\365\223\302\343\275\223\302\246\374\223\302>\377\223\302\375\002\224\302s\367\223\302\246\352\223\302\355\375\223\302c\003\224\302\245\372\223\302\211\373\223\302\244\373\223\302\325\371\223\302\252\361\223\302\256\373\223\302\347\001\224\302[\376\223\302\327\341\223\302\357\366\223\302\210\372\223\302\213\001\224\302C\344\223\302\031\360\223\302\315\357\223\302y\373\223\302\367\370\223\302\276\365\223\302C\355\223\302\273\002\224\302\026\373\223\302l\346\223\302\226\345\223\302h\000\224\302\210\375\223\3022\365\223\302\234\366\223\302\304\374\223\302O\370\223\302m\376\223\302\314\373\223\302\315\372\223\302\273\377\223\302S\373\223\302t\005\224\302:\366\223\302\305\353\223\302\354\355\223\302P\373\223\302G\322\223\302\005\002\224\302\031\371\223\302x\374\223\302\207\366\223\302\272\373\223\302\232\367\223\302>\352\223\302\006\375\223\302\255\356\223\302\231\377\223\302\304\347\223\302c\361\223\302]\363\223\3022\003\224\302d\004\224\302\315\347\223\302\262\357\223\302\004\361\223\302\210\370\223\302\236\001\224\302\212\354\223\302\322\001\224\302\325\370\223\302\266\376\223\302\030\276\223\302\034\375\223\302\370\377\223\302\213\370\223\302\200\375\223\302\233\357\223\3021\360\223\302_\363\223\302\226\354\223\302\026\356\223\302\340\370\223\3022\364\223\302\016\373\223\302f\362\223\302B\375\223\302 \362\223\302\304\007\224\302;\365\223\302\362\357\223\302\026\370\223\302\022\370\223\302\340\375\223\302\311\365\223\302A\357\223\302\261\374\223\302\200\372\223\302\326\370\223\302|\001\224\302\214\357\223\302b\366\223\302S\351\223\302t\360\223\302\333\365\223\302\265\357\223\302\177\357\223\302\270\362\223\302\244\356\223\302P\001\224\3028\365\223\302\336\006\224\3023\010\224\302)\362\223\302\210\365\223\302\033\365\223\302\375\360\223\302\300\357\223\302\024\355\223\302\351\000\224\302\323\364\223\302\216\366\223\302O\353\223\302\242\002\224\302\346\370\223\302\263\356\223\302/\341\223\302|\343\223\302\264\362\223\302n\004\224\302\036\001\224\302\310\350\223\302J\371\223\302e\371\223\302\240\372\223\302\377\343\223\302n\357\223\302[\366\223\302\233\357\223\302\371\376\223\302\003\367\223\302A\371\223\302#\374\223\302\222\350\223\302>\346\223\302G\346\223\302\227\362\223\302\202\330\223\302c\346\223\302w\362\223\302\377\373\223\302,\363\223\302\013\371\223\302\242\352\223\302D\010\224\302\001\366\223\302\010\007\224\302\322\363\223\302\204\350\223\302\366\370\223\302#\347\223\302\264\373\223\302+\372\223\302\275\367\223\302-\377\223\302>\370\223\3025\363\223\302\357\372\223\3029\341\223\302\371\374\223\302N\006\224\302\377\365\223\302a\000\224\302\241\353\223\302\353\366\223\302\017\344\223\302E\361\223\302\324\332\223\302\350\377\223\302\324\365\223\302\n\371\223\302K\343\223\302\370\000\224\302\332\003\224\302)\354\223\302t\001\224\302&\370\223\302\203\003\224\302\352\010\224\302#\375\223\302\224\371\223\302\254\001\224\302[\363\223\302\304\002\224\302N\335\223\302t\223\223\302W\375\223\302\306\373\223\302:\003\224\302\016\002\224\302\020\365\223\302e\345\223\302\233\367\223\302\233\000\224\302#\362\223\302\327\361\223\302=\363\223\302\204\372\223\302\375\007\224\302\324\005\224\302+\347\223\302\273\366\223\302\320\371\223\302+\006\224\302\037\353\223\302\227\003\224\302\303\346\223\302(\363\223\302\356\372\223\302\305\350\223\302\363\004\224\302\030\363\223\302P\371\223\302\300\271\223\302\257\003\224\302\232\004\224\302\357\357\223\302\036\366\223\302\215\346\223\302\255\223\223\302\022\004\224\302w\004\224\302L\352\223\302\315\371\223\302.\374\223\302F\360\223\302d\351\223\302\031\276\223\302\274\363\223\302z\374\223\302\n\367\223\302\260\372\223\302X\373\223\302\240\366\223\302\305\377\223\302\276\277\223\302A\376\223\3025\354\223\302\365\363\223\302y\300\223\302\277\271\223\302@\273\223\3023\342\223\302\315\215\223\302\305\363\223\302\031\002\224\302\000\372\223\302\201\223\223\302\214\372\223\302Y\373\223\302\252\215\223\302\315\002\224\302\255\005\224\302\362\022\224\302\017\372\223\302\372\271\223\302\005\374\223\302\311\277\223\302]\374\223\302M\344\223\302<\305\223\302z\364\223\302/\362\223\302<\366\223\302\272\277\223\302s\272\223\302\275\373\223\302\277\224\223\302?\376\223\302\364\331\223\302K\355\223\302\036\221\223\302\254\215\223\302\026\352\223\302\321\275\223\302O\366\223\302=\350\223\3025\374\223\302\\\375\223\302\261;\224\302\016\234\223\302\316\361\223\302N\316\223\302\007\366\223\302\'\374\223\302\236\376\223\302n\371\223\3020\372\223\302\212\351\223\302\343\376\223\302\"\224\223\3026\354\223\302\034\004\224\302\007\000\224\302U\366\223\302\332\271\223\302\023\365\223\302\271\002\224\302\023\371\223\302\244\374\223\302\330\353\223\302\'\352\223\302\021\003\224\302\036\350\223\302;\000\224\302\322\364\223\302\302\326\223\302\266\367\223\302}\375\223\302\027\010\224\302\320\372\223\302\317\355\223\302\343\376\223\302\355\361\223\302\007\377\223\302\357\372\223\302\203\364\223\302\324\325\223\302)\004\224\302\325\370\223\302\236\375\223\302h\367\223\302\344\277\223\302\177\363\223\3020\347\223\302b\377\223\302\246\355\223\302\276\356\223\302\025\001\224\302Z\373\223\302\205\366\223\302\257\356\223\302\006\000\224\302\306\350\223\302\205\374\223\302\013\363\223\302E\375\223\302\020\351\223\302q\003\224\302n\362\223\302z\366\223\302\312\004\224\302t\370\223\302%\365\223\302<\340\223\3020\372\223\302\237\373\223\302\273\375\223\302b\357\223\302L\356\223\302\367\353\223\3020\001\224\302\300\004\224\302\237\363\223\302\305\373\223\302\025\367\223\302\327\004\224\302\276\376\223\302\214\002\224\302r\374\223\302\027\366\223\302\006\357\223\302\347\372\223\302\260\365\223\302\220\370\223\302d\371\223\302\256\367\223\302\275\367\223\302A\351\223\302z\374\223\302i\356\223\302,\001\224\302\373\003\224\302\336\346\223\302\031\375\223\302\n\007\224\302]\354\223\302\320\371\223\302\022\356\223\302Z\354\223\302t\001\224\302\342\371\223\302\374\374\223\302\341\002\224\302\272\367\223\302\253\350\223\302\020\000\224\302s\363\223\302\235\342\223\3020\357\223\302\210\000\224\302\246\344\223\302\037\355\223\302\260\215\223\302\023\273\223\302\255\371\223\302\232\373\223\302\267\364\223\302\203\365\223\302\243\000\224\302\324\372\223\302\377\375\223\302u\357\223\302\252\377\223\302\227\365\223\302\221\374\223\302\240\371\223\302\370\365\223\302\373\372\223\302\257\373\223\302\177\375\223\302\034\366\223\302\262\371\223\302A\366\223\302k\000\224\302\222\367\223\302\177\353\223\302\277\370\223\302;\372\223\302\373\346\223\302\316\373\223\302\"\373\223\302\343\376\223\302\361\005\224\302D\372\223\302\002\277\223\302\360\276\223\302\225\007\224\302\261\364\223\302\262\350\223\302\r\352\223\302|\371\223\302\303\376\223\302{\351\223\302G\373\223\302-\372\223\302\200\366\223\302\330\000\224\302\375\345\223\302\016\224\223\302\353\350\223\302\234\365\223\302\357\355\223\302?\220\223\3029\364\223\302.\001\224\302?\374\223\302\347\275\223\302\366\377\223\302D\351\223\302\025\272\223\302\374\326\223\302\344\367\223\302\300\277\223\302\334\377\223\302\032\372\223\302\320\340\223\302\363\361\223\302\324\003\224\302\005\356\223\302\256\361\223\302C\365\223\3026\272\223\3028\364\223\302\353\275\223\302\376\364\223\302\301\363\223\302B\273\223\302H\377\223\302~\372\223\302\001\377\223\302\304\001\224\302\216\004\224\3026\272\223\302?\374\223\302\275\372\223\302(\273\223\302\r\002\224\302\'\364\223\302\235\375\223\302\004\374\223\302j\354\223\302H\276\223\302\016\277\223\302\210\223\223\302\373\373\223\302\250\215\223\302\376\364\223\302\266\215\223\302S\004\224\302\245\224\223\3022\235\223\302\363\217\223\302H\370\223\302y\373\223\302\250\215\223\302\375\366\223\302T\231\223\302\370\230\223\302\025\221\223\302\260\215\223\302v\361\223\302\340\000\224\302;\372\223\302\232\367\223\302\245\271\223\302\213\375\223\302u\370\223\302,\365\223\302^\220\223\302\326\363\223\302\336\373\223\302G\305\223\302\367\276\223\302\235\367\223\302\250\224\223\302\215\374\223\302J\223\223\302\035\351\223\302E\376\223\302\321\362\223\302\301\271\223\302\201\370\223\302\253\352\223\302\315\271\223\302\300\367\223\302/\305\223\302_\363\223\302\305\277\223\302\307\277\223\302G\305\223\302\005\277\223\302\013\300\223\302v\370\223\302\373\271\223\302\302\271\223\302\245\371\223\302\306\271\223\302\022\272\223\302\310\277\223\302|\370\223\302\001\277\223\302Y\273\223\302\022\362\223\302^\272\223\302m\366\223\302\305\002\224\302\365\010\224\302\206\220\223\302N\377\223\302\356\370\223\302\257\215\223\302\274\215\223\302$\361\223\302n\224\223\302K\355\223\302\034\220\223\302\276\215\223\302\007\376\223\302\010\366\223\302\262\215\223\302F\223\223\302\017\365\223\302%\367\223\302\201\367\223\302\030\332\223\302\005\277\223\302\267\277\223\302\340\365\223\302\003\366\223\302$\376\223\302\007\365\223\302\007\365\223\302\241\365\223\302<\372\223\302\341\276\223\302a\220\223\302\274\277\223\302\201\351\223\302\222\276\223\302\037\277\223\302o\345\223\302\205\352\223\302-\363\223\302\250\372\223\302\366\276\223\302\303\271\223\302V\305\223\302O\362\223\302\310\271\223\302;\305\223\302\255\350\223\302\236\367\223\302\350\276\223\302t\346\223\302h\366\223\302\326\275\223\302\310\277\223\302\203\363\223\302\352\217\223\302\351\351\223\302z\353\223\302\352\217\223\302\032\365\223\302\354\215\223\302\007\364\223\302m\362\223\302\314\352\223\302\020\003\224\302\244\373\223\302\211\352\223\3024\370\223\302\"\366\223\302\000\333\223\302\266\353\223\302\n\364\223\302\333\372\223\302\265\355\223\302\217\350\223\302\345\363\223\302\200\377\223\302\224\356\223\302@\373\223\3022\356\223\302V\377\223\302\363\362\223\302\252\343\223\302\261\001\224\302Z\356\223\302b\376\223\302g\346\223\302\306\360\223\302\376\352\223\302:\004\224\302E\357\223\302E\375\223\302*\361\223\302\363\365\223\302\245\003\224\302\220\001\224\302\247\364\223\302\347\364\223\302H\337\223\302\203\366\223\302\036\372\223\302\207\373\223\302\317\377\223\302&\367\223\302\301\351\223\302\256\372\223\302\211\353\223\302v\353\223\302;\000\224\302M\365\223\302\325\372\223\302\274\354\223\302\033\367\223\302\241\363\223\302z\377\223\302\335\354\223\302@\356\223\302(\361\223\302Y\375\223\302Z\377\223\302P\000\224\302w\364\223\302\333\366\223\302\302\366\223\302\244\360\223\302\340\351\223\302M\006\224\302\245\364\223\302\374\366\223\302w\376\223\302\223\003\224\302\312\365\223\302U\362\223\302\037\374\223\302<\355\223\302\230\370\223\302\323\356\223\302\266\363\223\302\024\365\223\302=\372\223\302\020\364\223\302\366\367\223\302\024\367\223\302o\361\223\3029\370\223\302k\355\223\302Y\001\224\302\222\371\223\302\373\371\223\302\250\367\223\302\210\375\223\302\215\357\223\302\343\370\223\302\177\355\223\302\353\374\223\302\016\374\223\302\246\375\223\302\353\360\223\302,\365\223\302\231\370\223\302\312\350\223\302\224\354\223\302\340\374\223\302\255\365\223\302\336\366\223\302\224\366\223\302+\355\223\302\255\356\223\302\333\370\223\302\324\354\223\302\005\366\223\302\305\362\223\3021\322\223\302\244\367\223\302\274\366\223\302(\004\224\302\352\366\223\302\030\367\223\302~\372\223\302\317\364\223\302\230\361\223\302\231\360\223\302\313\365\223\302\002\004\224\302\315\376\223\302\317\366\223\302\004\372\223\302a\001\224\302\002\365\223\302o\362\223\302\035\367\223\302\221\367\223\302\003\367\223\302\r\004\224\302#\366\223\302\224\363\223\302\234\362\223\302\213\000\224\302E\351\223\302\245\377\223\302\r\000\224\302%\372\223\302\234\370\223\302\311\374\223\302u\370\223\302\036\362\223\302|\375\223\302f\354\223\302@\352\223\302\327\350\223\302G\361\223\302\272\350\223\302\324\372\223\302\026\377\223\302\316\002\224\302\272\363\223\302\003\367\223\302\355\372\223\302\247\361\223\302\353\374\223\302\271\365\223\302I\363\223\302g\373\223\302\t\367\223\302\002\375\223\302\216\356\223\302-\356\223\302\300\363\223\302\226\366\223\302\363\364\223\302\007\360\223\302;\366\223\302K\362\223\302\232\356\223\302\310\373\223\302D\357\223\302\315\001\224\302\317\362\223\302\264\353\223\302\307\372\223\302\244\361\223\302\204\351\223\302\237\356\223\302K\352\223\302\246\373\223\302\244\002\224\302\214\375\223\302\265\365\223\302\324\373\223\302\004\366\223\302\032\373\223\302\023\373\223\302\321\365\223\302W\001\224\302?\367\223\302\017\352\223\302z\246\223\302\320\360\223\302\300\371\223\302m\003\224\302\337\002\224\302\371\372\223\3021\373\223\302\033\357\223\302\234\347\223\302\267\374\223\302\355\364\223\302\007\364\223\302\312\376\223\302N\363\223\302D\360\223\302 \377\223\302~\350\223\302D\360\223\302\314\365\223\3029\364\223\302\207\366\223\302\325\374\223\302q\362\223\302\257\001\224\302\253\365\223\3022\000\224\302>\002\224\3023\t\224\302q\373\223\302}\002\224\302\276\366\223\302\303\375\223\302\254\335\223\302G\003\224\302\211\007\224\302\233\357\223\302o\372\223\302N\354\223\302U\000\224\302b\373\223\302+\003\224\302\225\374\223\302\315\366\223\302\335\371\223\302\235\347\223\302\266\377\223\302\243\374\223\302J\362\223\3022\002\224\302V\364\223\302E\377\223\302\272\322\223\302\023\363\223\302\302\366\223\302\371\347\223\302\217\363\223\3027\370\223\302\177\362\223\302$\370\223\302N\364\223\302\361\372\223\302\272\360\223\302f\375\223\302\'\354\223\302\t\366\223\302\021\364\223\302\217\371\223\302\255\370\223\302K\365\223\302u\365\223\3020\370\223\302\247\352\223\302\220\004\224\302\243\356\223\302w\362\223\302q\371\223\302\030\367\223\302\316\362\223\302\353\376\223\302$\365\223\302R\356\223\302y\364\223\302@\361\223\302\230\354\223\302\204\375\223\302\243\344\223\302\253\366\223\302y\370\223\302*\362\223\302\222\363\223\302\301\364\223\302\257\361\223\302f\357\223\302~\352\223\302k\365\223\302\364\002\224\302V\373\223\302\221\373\223\302\336\001\224\302!\003\224\302\206\374\223\302\025\371\223\302\244\372\223\302|\374\223\302\204\347\223\302k\377\223\302\250\372\223\302\311\002\224\302n\375\223\302m\375\223\3024\366\223\302\365\000\224\302\000\365\223\302\027\351\223\302\250\367\223\302]\347\223\302\003\371\223\302S\004\224\302t\365\223\302\345\352\223\302k\372\223\302E\002\224\302p\003\224\302\354\376\223\302\304\373\223\302\202\373\223\302\251\365\223\302A\371\223\302+\367\223\302s\374\223\302\003\362\223\302\277\363\223\302@\356\223\302o\363\223\302\251\351\223\302\307\362\223\302\267\354\223\302\354\364\223\302\014\355\223\302\353\372\223\302\236\366\223\302\206\367\223\302-\004\224\302\002\002\224\302\261\210\223\302W\361\223\302\315\365\223\302;\357\223\302\030\367\223\302\353\373\223\302\231\373\223\302;\355\223\302\035\374\223\302\031\371\223\302\361\351\223\302\202\275\223\302\376\357\223\302\315\364\223\302\304\373\223\302\336\376\223\302\223\352\223\302\330\376\223\302\003\363\223\302m\361\223\302E\372\223\302s\370\223\302\t\002\224\302\205\356\223\302\223\373\223\302\217\363\223\302\035\363\223\302\335\374\223\302\363\346\223\302(\347\223\302\346\002\224\302%\360\223\302\371\367\223\302[\362\223\302@\351\223\302\347\313\223\302\023\353\223\302\330\360\223\302\257\365\223\302\251\371\223\302I\365\223\302d\353\223\302 \360\223\302\241\360\223\302-\346\223\302t\356\223\302\363\354\223\302E\362\223\302\334\371\223\302\022\001\224\302_\370\223\302\234\364\223\302A\002\224\302\325\003\224\302?\351\223\302\236\364\223\3022\362\223\302\232\371\223\302\036\002\224\302\264\366\223\302\334\374\223\302\233\370\223\302\315\375\223\302\270\366\223\302\267\372\223\302c\375\223\302#\361\223\302\256\363\223\302X\354\223\302\275\371\223\302\034\375\223\302\257\376\223\302e\373\223\302\245\312\223\302\271\360\223\302\231\371\223\302\376\362\223\302|\356\223\302\252\363\223\302\272\361\223\302;\375\223\302\032\363\223\3027\367\223\302m\366\223\302{\373\223\302\302\000\224\302\307\364\223\302J\364\223\302K\362\223\302u\001\224\302\353\000\224\3022\352\223\302#\352\223\302\220\370\223\302\343\375\223\302\037\000\224\302\246\370\223\302\267\366\223\302\346\000\224\302\255\363\223\302\324\371\223\302L\364\223\302\277\370\223\302T\004\224\302\276\366\223\302L\374\223\302z\003\224\302\022\364\223\302;\372\223\302\306\371\223\302\316\377\223\302b\355\223\3027\366\223\302\231\363\223\302Z\372\223\302\334\345\223\302$\010\224\302[\366\223\302\367\353\223\302c\372\223\302\235\354\223\302A\000\224\302\330\360\223\302\224\356\223\302\374\364\223\302\225\364\223\302q\356\223\302\335\350\223\302T\373\223\302\262\001\224\302o\360\223\302\001\351\223\302\320\372\223\302\315\000\224\302m\003\224\302\205\350\223\302D\000\224\302\270\371\223\302\207\362\223\3028\356\223\3021\374\223\302\207\373\223\302o\001\224\302\235\373\223\302\014\010\224\302\364\370\223\302<\366\223\302)\372\223\302U\372\223\302\200\357\223\3026\363\223\302\025\373\223\302\210\376\223\302\027\366\223\302}\373\223\302\257\371\223\302\000\375\223\302\367\357\223\302\344\002\224\302y\375\223\302\270\366\223\302[\363\223\302\250\374\223\302\346\365\223\302\221\362\223\302@\362\223\302T\372\223\302\312\004\224\302\325\373\223\302\346\372\223\302\'\356\223\302\027\367\223\302\205\351\223\302\205\005\224\302\223\376\223\302\217\373\223\302A\372\223\302\205\363\223\302\373\355\223\302\n\361\223\302\216\377\223\302\250\371\223\302+\367\223\302|\374\223\302,\370\223\302\277\361\223\302~\354\223\302c\372\223\302\352\364\223\302x\373\223\302*\372\223\302!\374\223\302\010\362\223\302\020\342\223\302\214\366\223\302\307\361\223\302\272\003\224\302\347\366\223\3023\352\223\302.\004\224\302\"\351\223\302\000\276\223\302\031\376\223\302\264\354\223\302\010\374\223\302\\\347\223\302o\371\223\302\215\353\223\302\357\002\224\302\032\005\224\302\217\371\223\302 \370\223\302\014\363\223\302H\344\223\302\327\365\223\302\260\365\223\302\373\331\223\302\243\377\223\302\256\354\223\302!\367\223\302\260\373\223\302&\377\223\302\343\367\223\302\206\362\223\302\200\006\224\302\270\367\223\302S\004\224\302\350\366\223\302\205\366\223\3026\346\223\302\365\374\223\302\332\375\223\302\224\007\224\302\252\375\223\302U\260\223\302\001\372\223\302\377\000\224\302\200\350\223\302\231\215\223\302\002\272\223\302\177\005\224\302\355\232\223\302\232\366\223\302D\372\223\302\233\362\223\302\352\217\223\302\351\364\223\302\221\350\223\302\214\003\224\302\241\352\223\302\020\264\223\302\350\375\223\302\232\363\223\302\265\376\223\3026\005\224\3023\361\223\3028\352\223\302\260\356\223\302\313\373\223\302\020\345\223\302\016\335\223\302\276\353\223\302\323\355\223\3026\346\223\302\222\362\223\302\310\275\223\3023\365\223\302\300\001\224\302\343\360\223\302\273\275\223\302\224\362\223\302B\375\223\302T\372\223\302\332\366\223\302,\376\223\302:\000\224\302\256\271\223\302Z\272\223\302\313\364\223\302\324\271\223\302\302\277\223\302XF\222\3027\273\223\302\361\374\223\302\005\300\223\302\246\215\223\302\232\364\223\302C\004\224\302\026\272\223\302<\367\223\302B\010\224\302\020\367\223\302)\346\223\302\203\360\223\302\252\373\223\302\266\271\223\302\304\271\223\302\013\277\223\302-\372\223\302>\305\223\302\345\364\223\302\353\362\223\302\223\002\224\302\355\371\223\302\002\370\223\302\266\372\223\302\265\365\223\302\231\372\223\302d\347\223\302\320\367\223\302\233\350\223\302\376\355\223\302g\364\223\302 \366\223\302N\351\223\302\030\362\223\302\300\377\223\302\024\372\223\302\302\370\223\302J\374\223\302\212\005\224\302\333\364\223\302f\374\223\302\003\363\223\302\323\004\224\302!\352\223\302D\370\223\302\343\355\223\302A\370\223\302e\371\223\302\244\374\223\302\245\364\223\302\332\350\223\302\025\343\223\302\317\346\223\302?\350\223\302\307\371\223\302\010\375\223\302\320\345\223\302\364\371\223\302\336\366\223\302\005\362\223\302\374\361\223\302\247\370\223\302p\370\223\302V\003\224\302h\350\223\302\n\370\223\302O\374\223\302\260\374\223\302\306\002\224\302\214\373\223\302\"\362\223\302\006\366\223\302\373\356\223\302\367\372\223\302\267\366\223\302\375\355\223\302\361\372\223\302\246\373\223\302\323\350\223\302b\365\223\302w\365\223\302%\365\223\302[\367\223\302\254\373\223\302;\351\223\302\207\346\223\302T\366\223\302\256\366\223\302\216\375\223\302Y\373\223\302-\363\223\302\345\002\224\302_\366\223\302\347\347\223\302`\366\223\3028\002\224\302\022\364\223\302;\344\223\302\365\366\223\302\235\361\223\302\022\366\223\302\354\356\223\302{\371\223\302P\010\224\302*\351\223\302\325\363\223\302[\370\223\302i\347\223\302\256\364\223\302\265\342\223\302J\000\224\302T\353\223\302\201\361\223\302}\361\223\302J\364\223\302\254\372\223\302\360\356\223\302\007\367\223\302\252\002\224\3028\363\223\302\215\362\223\302|\360\223\302W\362\223\302,\367\223\302D\346\223\302\366\366\223\302\320\373\223\302\000\002\224\302\264\374\223\302\021\365\223\302\226\371\223\302P\354\223\302J\350\223\302\347\372\223\302\377\364\223\302-\364\223\302\r\377\223\3021\365\223\302\311\376\223\302\266\372\223\302+\374\223\3023\377\223\302\306\352\223\302\376\357\223\302\303\372\223\302\302\001\224\302\227\347\223\302\201\361\223\3025\371\223\302\001\364\223\302@\370\223\302W\373\223\302\203\002\224\302\252\377\223\302m\364\223\302\340\366\223\302\263\366\223\302\246\362\223\302\374\366\223\302m\371\223\302\'\001\224\302\204\350\223\302N\355\223\302\253\366\223\302!\355\223\302\005\361\223\302x\373\223\302\224\373\223\302\325\361\223\302\"\364\223\302\272\357\223\302\030\374\223\302\255\360\223\302\336\371\223\302\263\366\223\302\342\371\223\302Z\363\223\302\022\370\223\302\361\002\224\302\256\367\223\302\221\364\223\302\277\355\223\302\373\356\223\302v\373\223\302\227\371\223\302\263\364\223\302\261\366\223\302\004\372\223\302\214\367\223\302\363\002\224\302\036\352\223\302^\376\223\302,\357\223\302N\346\223\302\337\363\223\302K\006\224\302\201\354\223\302\"\004\224\302\227\355\223\302\374\366\223\302H\377\223\302\005\367\223\302\216\370\223\302\016\377\223\302\032\310\223\302b\377\223\302\r\366\223\302\315\364\223\302\304\372\223\302\022\351\223\302L\370\223\302\372\374\223\302$\347\223\302h\365\223\302\370\001\224\302\300\355\223\302\302\002\224\302Q\341\223\302\373\377\223\302q\366\223\302Y\371\223\302P\356\223\302\001\365\223\302#\374\223\302\350\353\223\302\346\000\224\302\303\001\224\302\017\373\223\302\353\354\223\302\004\364\223\302\031\372\223\302\005\372\223\3022\362\223\302z\361\223\302\211\370\223\302\222\365\223\302\243\375\223\302\257\003\224\302\321\363\223\302\206\000\224\302V\354\223\302\250\356\223\3026\363\223\302\245\351\223\302O\372\223\302\345\362\223\302g\364\223\302D\355\223\302\005\364\223\302\t\003\224\302\234\370\223\302\n\006\224\302E\354\223\302S\367\223\302\004\377\223\302\262\362\223\302?\004\224\302\351\364\223\302\215\361\223\302H\000\224\302s\371\223\302\336\372\223\302\016\372\223\302?\351\223\302\235\377\223\302\203\357\223\302\255\350\223\302\232\374\223\302\253\356\223\302\025\367\223\302<\367\223\302\271\001\224\302\221\357\223\302U\376\223\302X\367\223\302\217\371\223\302\233\003\224\302\024\372\223\302\014\347\223\302.\372\223\302I\371\223\302U\374\223\302B\000\224\302~\366\223\302\231\371\223\302\252\360\223\302\321\347\223\302\276\360\223\302\261\377\223\302V\375\223\302X\371\223\302K\373\223\302W\374\223\302\313\350\223\302\227\373\223\302X\351\223\302\221\365\223\302\355\373\223\3024\375\223\302H\371\223\302\275\364\223\302\032\347\223\302\325\375\223\302A\363\223\302\\\357\223\302\272\002\224\302\240\002\224\302=\371\223\302\325\371\223\302K\341\223\302\234\363\223\302d\362\223\302\244\360\223\302p\371\223\302\204\003\224\302b\355\223\302\256\374\223\302\214\003\224\302g\371\223\302\371\364\223\302\232\354\223\302\334\375\223\302\330\366\223\302*\004\224\302:\373\223\302G\352\223\302\253\372\223\302\320\366\223\302r\362\223\302>\361\223\302`\370\223\3021\375\223\302\243\350\223\302m\367\223\302\251\341\223\302\315\366\223\302 